{"<|endoftext|>":0,"!":1,"\"":2,"#":3,"$":4,"%":5,"&":6,"'":7,"(":8,")":9,"*":10,"+":11,",":12,"-":13,".":14,"/":15,"0":16,"1":17,"2":18,"3":19,"4":20,"5":21,"6":22,"7":23,"8":24,"9":25,":":26,";":27,"<":28,"=":29,">":30,"?":31,"@":32,"A":33,"B":34,"C":35,"D":36,"E":37,"F":38,"G":39,"H":40,"I":41,"J":42,"K":43,"L":44,"M":45,"N":46,"O":47,"P":48,"Q":49,"R":50,"S":51,"T":52,"U":53,"V":54,"W":55,"X":56,"Y":57,"Z":58,"[":59,"\\":60,"]":61,"^":62,"_":63,"`":64,"a":65,"b":66,"c":67,"d":68,"e":69,"f":70,"g":71,"h":72,"i":73,"j":74,"k":75,"l":76,"m":77,"n":78,"o":79,"p":80,"q":81,"r":82,"s":83,"t":84,"u":85,"v":86,"w":87,"x":88,"y":89,"z":90,"{":91,"|":92,"}":93,"~":94,"¡":95,"¢":96,"£":97,"¤":98,"¥":99,"¦":100,"§":101,"¨":102,"©":103,"ª":104,"«":105,"¬":106,"®":107,"¯":108,"°":109,"±":110,"²":111,"³":112,"´":113,"µ":114,"¶":115,"·":116,"¸":117,"¹":118,"º":119,"»":120,"¼":121,"½":122,"¾":123,"¿":124,"À":125,"Á":126,"Â":127,"Ã":128,"Ä":129,"Å":130,"Æ":131,"Ç":132,"È":133,"É":134,"Ê":135,"Ë":136,"Ì":137,"Í":138,"Î":139,"Ï":140,"Ð":141,"Ñ":142,"Ò":143,"Ó":144,"Ô":145,"Õ":146,"Ö":147,"×":148,"Ø":149,"Ù":150,"Ú":151,"Û":152,"Ü":153,"Ý":154,"Þ":155,"ß":156,"à":157,"á":158,"â":159,"ã":160,"ä":161,"å":162,"æ":163,"ç":164,"è":165,"é":166,"ê":167,"ë":168,"ì":169,"í":170,"î":171,"ï":172,"ð":173,"ñ":174,"ò":175,"ó":176,"ô":177,"õ":178,"ö":179,"÷":180,"ø":181,"ù":182,"ú":183,"û":184,"ü":185,"ý":186,"þ":187,"ÿ":188,"Ā":189,"ā":190,"Ă":191,"ă":192,"Ą":193,"ą":194,"Ć":195,"ć":196,"Ĉ":197,"ĉ":198,"Ċ":199,"ċ":200,"Č":201,"č":202,"Ď":203,"ď":204,"Đ":205,"đ":206,"Ē":207,"ē":208,"Ĕ":209,"ĕ":210,"Ė":211,"ė":212,"Ę":213,"ę":214,"Ě":215,"ě":216,"Ĝ":217,"ĝ":218,"Ğ":219,"ğ":220,"Ġ":221,"ġ":222,"Ģ":223,"ģ":224,"Ĥ":225,"ĥ":226,"Ħ":227,"ħ":228,"Ĩ":229,"ĩ":230,"Ī":231,"ī":232,"Ĭ":233,"ĭ":234,"Į":235,"į":236,"İ":237,"ı":238,"Ĳ":239,"ĳ":240,"Ĵ":241,"ĵ":242,"Ķ":243,"ķ":244,"ĸ":245,"Ĺ":246,"ĺ":247,"Ļ":248,"ļ":249,"Ľ":250,"ľ":251,"Ŀ":252,"ŀ":253,"Ł":254,"ł":255,"Ń":256,"ĠĊ":257,"en":258,"de":259,"os":260,"es":261,"la":262,"ra":263,"Ġde":264,"Ġs":265,"Ġa":266,"er":267,"Ġc":268,"Ġp":269,"ue":270,"do":271,"Ġm":272,"ta":273,"on":274,"el":275,"un":276,"or":277,"re":278,"in":279,"as":280,"Ġla":281,"te":282,"que":283,"an":284,"ci":285,"ÃŃ":286,"Ġy":287,"Ġl":288,"da":289,"Ġel":290,"Ġen":291,"Ġh":292,"Ġque":293,"to":294,"ar":295,"Ġun":296,"Ã¡":297,"Ġes":298,"Ġv":299,"Ã³":300,"ĠĠ":301,"ti":302,"om":303,"di":304,"Ġn":305,"al":306,"ri":307,"Ġsu":308,"ro":309,"tu":310,"le":311,"Ġf":312,"Ã©":313,"ÃŃa":314,"ab":315,"is":316,"ente":317,"Ġo":318,"Ġcon":319,"Ġse":320,"Ġlos":321,"Ġb":322,"tra":323,"ch":324,"dos":325,"Ã³n":326,"mp":327,"Ġe":328,"ca":329,"lo":330,"cu":331,"Ġal":332,"Ã±":333,"ma":334,"se":335,"li":336,"Ã¡s":337,"ien":338,"ara":339,"Ġno":340,"Ġlas":341,"Â¡":342,"Ġuna":343,"res":344,"ĠĠĠĠ":345,"Ġcom":346,"los":347,"Ġin":348,"mente":349,"Ġdel":350,"qu":351,"bre":352,"us":353,"era":354,"Ġg":355,"Ġha":356,"ol":357,"ado":358,"vi":359,"Ġmi":360,"Ġre":361,"ce":362,"dad":363,"Ġpor":364,"con":365,"ĠE":366,"ter":367,"cia":368,"tos":369,"tan":370,"las":371,"Ġcu":372,"ros":373,"pi":374,"Ãº":375,"das":376,"gu":377,"Ġdes":378,"co":379,"ec":380,"Ġt":381,"ciÃ³n":382,"ba":383,"Ġcomo":384,"ues":385,"si":386,"Ġme":387,"du":388,"ran":389,"Ġdi":390,"ero":391,"tes":392,"za":393,"ĠmÃ¡s":394,"go":395,"mo":396,"Ġmu":397,"mb":398,"Ġtu":399,"Ġto":400,"ora":401,"me":402,"mi":403,"Ġi":404,"des":405,"Ġvi":406,"Ġsus":407,"ando":408,"men":409,"ones":410,"Ġpara":411,"Ġsi":412,"ĠÂ¡":413,"Ġso":414,"Ġlo":415,"fi":416,"jo":417,"man":418,"les":419,"ĠL":420,"tar":421,"pa":422,"ga":423,"ĠP":424,"Ã¡n":425,"tas":426,"Ġmis":427,"bi":428,"mos":429,"ĠS":430,"Ġsin":431,"tro":432,"no":433,"Ġpa":434,"su":435,"Ġca":436,"gi":437,"Ġex":438,"Ġpo":439,"so":440,"va":441,"sa":442,"Ġhab":443,"ble":444,"ru":445,"Â¿":446,"jos":447,"ĠD":448,"mien":449,"ras":450,"Ġdo":451,"qui":452,"emp":453,"lan":454,"Ġper":455,"Ġesp":456,"ĠA":457,"tor":458,"cer":459,"ten":460,"oso":461,"Ġle":462,"Ġti":463,"Ġan":464,"Ġar":465,"Ġpro":466,"una":467,"com":468,"ve":469,"ces":470,"ina":471,"lor":472,"Ġci":473,"na":474,"âĢ":475,"mor":476,"ombre":477,"cho":478,"tre":479,"ino":480,"ĠC":481,"El":482,"mas":483,"ĠM":484,"idad":485,"ja":486,"ver":487,"eb":488,"aba":489,"lar":490,"cen":491,"tros":492,"En":493,"Que":494,"Ġd":495,"Ġma":496,"len":497,"por":498,"osa":499,"po":500,"Ã±o":501,"tado":502,"ÃŃs":503,"uer":504,"cos":505,"ciones":506,"ari":507,"Ġte":508,"ĠĠĠĠĠĠĠĠ":509,"Ġser":510,"tura":511,"Ġqu":512,"ĠY":513,"ren":514,"rÃŃa":515,"ĠEl":516,"eri":517,"cas":518,"ex":519,"Ġtra":520,"..":521,"vo":522,"Ġve":523,"ven":524,"encia":525,"gar":526,"ul":527,"ante":528,"Ã©n":529,"Ġab":530,"tal":531,"Ġsobre":532,"ĠT":533,"De":534,"âĢĶ":535,"zÃ³n":536,"ĠÂ¿":537,"Ġcora":538,"je":539,"Ġdu":540,"Ġver":541,"Ã±os":542,"mÃ¡s":543,"para":544,"miento":545,"can":546,"ini":547,"Ġhe":548,"Ġsen":549,"Ġna":550,"Ãºn":551,"ĠÃ©":552,"ha":553,"den":554,"fun":555,"pe":556,"Ġgran":557,"ag":558,"Ġj":559,"Ġhu":560,"Ġni":561,"uestra":562,"ales":563,"ÃŃan":564,"Ġesta":565,"Ġ.":566,"lu":567,"elo":568,"ĠEs":569,"Ġimp":570,"cha":571,"che":572,"lla":573,"pro":574,"reci":575,"rado":576,"Ġtodo":577,"ĠcorazÃ³n":578,"Ġhombre":579,"Ġob":580,"eces":581,"car":582,"ene":583,"min":584,"per":585,"Ġtan":586,"dor":587,"Es":588,"ig":589,"asta":590,"No":591,"rada":592,"gun":593,"omb":594,"ris":595,"Ġojos":596,"teri":597,"Ã±a":598,"Ġmuy":599,"Ġest":600,"del":601,"La":602,"Ġas":603,"son":604,"Â»":605,"pio":606,"Ġpi":607,"Ġpue":608,"Ġman":609,"mar":610,"cio":611,"ĠEn":612,"gui":613,"ĠhabÃŃa":614,"Ġson":615,"Ġlu":616,"leg":617,"rÃŃ":618,"omo":619,"Ġtus":620,"eg":621,"ritu":622,"Ã©s":623,"Ġinf":624,"ĠH":625,"Ġor":626,"dio":627,"ĠLa":628,"empo":629,"Ġyo":630,"sus":631,"cor":632,"rÃ¡":633,"Ġres":634,"Ġsue":635,"ali":636,"Ġba":637,"chÃŃs":638,"ĠV":639,"Ġese":640,"Ġemb":641,"empre":642,"fec":643,"Ġvol":644,"Ġbel":645,"nde":646,"ur":647,"Â«":648,"esp":649,"Ġsol":650,"Ġra":651,"esa":652,"Ġpas":653,"Ġpero":654,"uel":655,"Ġmar":656,"ton":657,"Ġcas":658,"Ġesa":659,"Ġfa":660,"Ġcual":661,"cre":662,"ron":663,"ser":664,"iÃ³n":665,"Ġmen":666,"Ġeste":667,"tante":668,"cÃŃa":669,"Ġcor":670,"Ġnoche":671,"Ġtodos":672,"hab":673,"zo":674,"Ġcomp":675,"gen":676,"quel":677,"ana":678,"Yo":679,"Ġpar":680,"tud":681,"Ġcuando":682,"Ġten":683,"jer":684,"cir":685,"ĠÃ©l":686,"Cu":687,"ios":688,"st":689,"der":690,"Ġamor":691,"mbi":692,"fu":693,"for":694,"sen":695,"Ġven":696,"gos":697,"Ġmo":698,"undo":699,"fa":700,"cido":701,"Qu":702,"cias":703,"Ġdonde":704,"Â».":705,"ban":706,"esta":707,"rar":708,"Ġcan":709,"Ġcar":710,"mientos":711,"pres":712,"dÃŃa":713,"osos":714,"Ġpu":715,"tamente":716,"Oh":717,"Ġsab":718,"Ġac":719,"Ġpe":720,"Ġalma":721,"lidad":722,"rante":723,"osas":724,"Ġentre":725,"Un":726,"ir":727,"ido":728,"Ġos":729,"Ġdos":730,"esti":731,"Ġcre":732,"Ġcab":733,"Ġpen":734,"recu":735,"Ġhi":736,"Ġhor":737,"Ġpare":738,"Ġvez":739,"ÃŃas":740,"Ġli":741,"Ġmismo":742,"Como":743,"cri":744,"ob":745,"Ġro":746,"Ġva":747,"Ġbien":748,"Ġprofun":749,"fer":750,"Ġri":751,"dades":752,"Ġhasta":753,"Ġopio":754,"Ġera":755,"comp":756,"cla":757,"ĠI":758,"Ġmon":759,"rim":760,"Ġcielo":761,"bles":762,"ĠâĢĶ":763,"Ġpre":764,"Ġlar":765,"ÃŃn":766,"ĠPero":767,"ia":768,"mis":769,"ano":770,"Ã³lo":771,"dido":772,"mado":773,"ya":774,"ĠmÃŃ":775,"ores":776,"temp":777,"Ġher":778,"leza":779,"eran":780,"ĠhachÃŃs":781,"contra":782,"Ġsiempre":783,"como":784,"ĠdÃŃa":785,"tel":786,"zar":787,"entes":788,"uestros":789,"quier":790,"mu":791,"Ġta":792,"Ġau":793,"Ġveces":794,"uestro":795,"pu":796,"Ġcer":797,"Ã©is":798,"able":799,"cul":800,"ada":801,"io":802,"Ġap":803,"ÃŃritu":804,"Ġfin":805,"Con":806,"erto":807,"Ġpues":808,"Ġfi":809,"gn":810,"mon":811,"zos":812,"osi":813,"rio":814,"Ġvida":815,"ber":816,"zas":817,"Ġvie":818,"gado":819,"uen":820,"yo":821,"ĠB":822,"Ġmal":823,"Ġneg":824,"tras":825,"Ġhacia":826,"Ġmirada":827,"Ġextra":828,"pon":829,"Ġco":830,"Ġhace":831,"mento":832,"imp":833,"Ġya":834,"Ġtoda":835,"EL":836,"Se":837,"tÃ¡":838,"ĠO":839,"lacer":840,"Ġllen":841,"tica":842,"Ġnos":843,"Ġfor":844,"lores":845,"ad":846,"gri":847,"llo":848,"vÃŃa":849,"ĠR":850,"Ġvis":851,"riag":852,"cuer":853,"lica":854,"iones":855,"Ġcla":856,"dar":857,"gua":858,"mano":859,"Ġpuede":860,"Para":861,"emb":862,"lti":863,"sue":864,"ĠÂ«":865,"enta":866,"lado":867,"Ġtiempo":868,"cl":869,"vol":870,"endo":871,"ese":872,"Ġsal":873,"antes":874,"quÃŃ":875,"cono":876,"Ġbajo":877,"Ġhan":878,"ria":879,"tern":880,"Ġdis":881,"tonces":882,"mbiÃ©n":883,"Los":884,"be":885,"Ġdese":886,"Ġaquel":887,"tido":888,"tran":889,"Ġcuer":890,"Ġju":891,"eta":892,"gra":893,"pre":894,"vis":895,"tad":896,"Ġfue":897,"aban":898,"ĠDe":899,"ĠquÃ©":900,"Ġr":901,"ĠĠĊ":902,"Ġcol":903,"Ġella":904,"ĠtÃº":905,"Ġmuer":906,"Ġsa":907,"Ġmundo":908,"onde":909,"Ġlle":910,"Ġvuestra":911,"fici":912,"ĠSe":913,"gel":914,"hombre":915,"ita":916,"lab":917,"ÃŃo":918,"Ġencan":919,"Ġesos":920,"Ġgra":921,"Ġdesde":922,"eza":923,"jar":924,"sin":925,"stante":926,"Ġdecir":927,"eli":928,"Ġvino":929,"Ġfuer":930,"bajo":931,"Ġespe":932,"Ġdul":933,"he":934,"dera":935,"alidad":936,"Ġcono":937,"Ġbuen":938,"Ġmujer":939,"Ġsino":940,"Ġperfu":941,"stru":942,"Por":943,"pen":944,"tÃ¡n":945,"ĠN":946,"ĠNo":947,"tir":948,"dose":949,"menta":950,"ĠespÃŃritu":951,"ĠYo":952,"Ġnatura":953,"Ġmenos":954,"Ġparte":955,"QuÃ©":956,"Pero":957,"ire":958,"par":959,"van":960,"erno":961,"ĠlÃ¡":962,"osotros":963,"ĠĠĠĠĠĠĠĠĠĠ":964,"riste":965,"Donde":966,"bo":967,"cciÃ³n":968,"fuer":969,"gÃºn":970,"pec":971,"Ġsan":972,"ÃŃdo":973,"Ġesas":974,"tico":975,"mana":976,"ĠasÃŃ":977,"hora":978,"obre":979,"ptu":980,"tin":981,"um":982,"ĠF":983,"Ġlla":984,"Ġgen":985,"Ġhay":986,"cal":987,"Ġros":988,"Ġja":989,"Ġpres":990,"Ġmor":991,"chos":992,"ĠDios":993,"gan":994,"pero":995,"uptu":996,"vos":997,"Ġaleg":998,"Ġcal":999,"Ġprim":1000,"dado":1001,"Ġvo":1002,"tiva":1003,"Ġalgun":1004,"Ã±as":1005,"mag":1006,"usi":1007,"ĠPor":1008,"ario":1009,"ror":1010,"tri":1011,"var":1012,"Ġaz":1013,"eros":1014,"todo":1015,"todos":1016,"Ġrecuer":1017,"Ġtor":1018,"eblas":1019,"....":1020,"ados":1021,"ge":1022,"mes":1023,"sÃŃ":1024,"Ġplacer":1025,"uez":1026,"dis":1027,"Ġotro":1028,"Ġante":1029,"inieblas":1030,"cÃ³":1031,"ide":1032,"Ġru":1033,"ĠsÃ³lo":1034,"ismo":1035,"Ġbo":1036,"Ġmucho":1037,"ombres":1038,"rÃŃo":1039,"ĠsueÃ±o":1040,"Ha":1041,"ne":1042,"pas":1043,"Ġter":1044,"Ġtar":1045,"Ġpr":1046,"antas":1047,"Ġnue":1048,"Ġgo":1049,"Ãºsi":1050,"Ġcereb":1051,"gre":1052,"iz":1053,"ju":1054,"Ãģ":1055,"Ġtal":1056,"ĠpÃ¡":1057,"ondo":1058,"inf":1059,"til":1060,"dia":1061,"almente":1062,"Ã©r":1063,"Ġemp":1064,"eras":1065,"ĠestÃ¡":1066,"hi":1067,"lÃ¡":1068,"ĠU":1069,"erra":1070,"Ġsuf":1071,"Ġotra":1072,"chas":1073,"iento":1074,"Ġmedio":1075,"Ġide":1076,"Ġperson":1077,"ĠCu":1078,"recuencia":1079,"ctor":1080,"gas":1081,"gÃŃa":1082,"gran":1083,"mbre":1084,"Ġjo":1085,"taba":1086,"rible":1087,"Ġtodas":1088,"Ġquien":1089,"fecto":1090,"grimas":1091,"riaguez":1092,"Ġcuerpo":1093,"LA":1094,"au":1095,"dente":1096,"lmente":1097,"oh":1098,"rÃ©":1099,"osidad":1100,"esar":1101,"Ġsomb":1102,"Ġaire":1103,"uego":1104,"unto":1105,"cion":1106,"Ġfu":1107,"chi":1108,"cado":1109,"vir":1110,"Ġmedi":1111,"lante":1112,"Ġcabeza":1113,"!\"":1114,"hu":1115,"cie":1116,"todas":1117,"turas":1118,"ĠĠĠĠĠĠ":1119,"Ġarro":1120,"ĠMe":1121,"Ġnada":1122,"Ġpie":1123,"bro":1124,"gus":1125,"guna":1126,"pues":1127,"ĠUn":1128,"ento":1129,"Ġmora":1130,"anto":1131,"ancia":1132,"Ġhora":1133,"tiempo":1134,"Ġfondo":1135,"culo":1136,"vido":1137,"Ġtriste":1138,"pare":1139,"Ġdolor":1140,"Ġtran":1141,"ronto":1142,"Su":1143,"nos":1144,"pue":1145,"Ġ(":1146,"ĠaquÃŃ":1147,"eron":1148,"Ġmente":1149,"tera":1150,"cios":1151,"damente":1152,"mpli":1153,"usa":1154,"Ġdurante":1155,"pecto":1156,"Ġcerebro":1157,"Si":1158,"ea":1159,"ica":1160,"mÃ³":1161,"pli":1162,"tÃŃ":1163,"vas":1164,"Ġda":1165,"ĠÃ¡":1166,"laba":1167,"iendo":1168,"Ġinmen":1169,"Ġgri":1170,"vil":1171,"piritu":1172,"Ġpoco":1173,"inaciÃ³n":1174,"habÃŃa":1175,"bel":1176,"gue":1177,"ida":1178,"lÃŃ":1179,"pel":1180,"zado":1181,"dez":1182,"deci":1183,"esos":1184,"Ġbor":1185,"Ġbri":1186,"Ġbus":1187,"quÃ©":1188,"roso":1189,"mej":1190,"paÃ±":1191,"Ġcada":1192,"Ġpod":1193,"Ġtiene":1194,"Ġautor":1195,"clusi":1196,"ĠjamÃ¡s":1197,"ĠCuando":1198,"Al":1199,"OS":1200,"ac":1201,"tÃŃa":1202,"Ġ\"":1203,"Ġad":1204,"unca":1205,"dir":1206,"Ġfr":1207,"Ġcontemp":1208,"Ġbar":1209,"cura":1210,"mili":1211,"Ġmisteri":1212,"Ġmodo":1213,"Ġlleno":1214,"Me":1215,"Mi":1216,"pera":1217,"ĠaÃ±os":1218,"Ġcr":1219,"Ġpos":1220,"unque":1221,"Ġele":1222,"Ġnu":1223,"tur":1224,"trar":1225,"Ã±ana":1226,"ador":1227,"mentos":1228,"ĠSi":1229,"ĠAl":1230,"âĢ¦":1231,"Ġluz":1232,"Ġvoluptu":1233,"Cuando":1234,"Ġdulce":1235,"Re":1236,"ho":1237,"jas":1238,"pÃ³":1239,"tr":1240,"ves":1241,"ĠJ":1242,"Ġqui":1243,"esto":1244,"Ġpesa":1245,"ĠmÃ¡":1246,"ĠmÃºsi":1247,"inos":1248,"inter":1249,"ÃŃsi":1250,"Ġentonces":1251,"cep":1252,"Ġdice":1253,"ĠLos":1254,"ĠSa":1255,"Ġhaber":1256,"ĠDE":1257,"tencia":1258,"...":1259,"ĠsueÃ±os":1260,"Ġlargo":1261,"Ġhermos":1262,"eranza":1263,"clusive":1264,"ER":1265,"II":1266,"In":1267,"Sobre":1268,"aje":1269,"bu":1270,"fo":1271,"sos":1272,"vÃ©s":1273,"ĠG":1274,"Ġer":1275,"demÃ¡s":1276,"Ġaman":1277,"erta":1278,"toda":1279,"tigu":1280,"iste":1281,"Ġol":1282,"Ġsecre":1283,"lita":1284,"Ġref":1285,"Ġtinieblas":1286,"Ġir":1287,"ĠLas":1288,"Ġpobre":1289,"Ġlugar":1290,"contrar":1291,"Des":1292,"To":1293,"aj":1294,"dres":1295,"lle":1296,"mal":1297,"mina":1298,"ni":1299,"ud":1300,"ura":1301,"yos":1302,"Ġhal":1303,"Ġuno":1304,"Ã¡is":1305,"Ġblan":1306,"Ġeter":1307,"ĠĠĠĠĠĠĠĠĠĊ":1308,"Ġqueri":1309,"inito":1310,"Ġmanera":1311,"Ġbelleza":1312,"stin":1313,"ĠalegrÃŃa":1314,"eo":1315,"fes":1316,"fin":1317,"iado":1318,"ifi":1319,"jado":1320,"pri":1321,"uda":1322,"Ġpronto":1323,"tambiÃ©n":1324,"inci":1325,"anos":1326,"cidos":1327,"Ġellos":1328,"argo":1329,"tiene":1330,"Ġnuestra":1331,"Ġnuestro":1332,"Ġbra":1333,"ches":1334,"cuando":1335,"gular":1336,"ĠPara":1337,"Ġcamp":1338,"cesi":1339,"ĠdÃŃas":1340,"extra":1341,"Ġgrandes":1342,"Ġcomple":1343,"ĠlÃ¡grimas":1344,"Ġfrente":1345,"Las":1346,"bli":1347,"et":1348,"rom":1349,"sar":1350,"ĠÃģ":1351,"Ġcos":1352,"Ġcosas":1353,"Ġpreci":1354,"inas":1355,"Ġestado":1356,"tis":1357,"ables":1358,"uso":1359,"Ġhacer":1360,"vida":1361,"Ġrela":1362,"Ġmulti":1363,"Ã¡ndose":1364,"Ġciu":1365,"mordi":1366,"ĠmaÃ±ana":1367,"Ġtemp":1368,"ĠTo":1369,"ĠniÃ±o":1370,"osible":1371,"ĠtodavÃŃa":1372,"Ġrecuerdo":1373,"Ġtarde":1374,"Del":1375,"Tu":1376,"TÃº":1377,"adas":1378,"bes":1379,"cto":1380,"dre":1381,"idos":1382,"lon":1383,"pos":1384,"tÃ³":1385,"tino":1386,"Ġquier":1387,"eno":1388,"eso":1389,"tales":1390,"dadera":1391,"diÃ³":1392,"Ġnuestros":1393,"Ġflores":1394,"entemente":1395,"Ġglor":1396,"Ãºbi":1397,"Ġdiv":1398,"fica":1399,"Ã¡ndo":1400,"Ġmisma":1401,"Ġpalab":1402,"Ġtien":1403,"masiado":1404,"Ġgrande":1405,"Ġestaba":1406,"Ġpensa":1407,"ĠIn":1408,"Ġviejo":1409,"Ġsufri":1410,"aquel":1411,"cti":1412,"cÃ©":1413,"caba":1414,"peri":1415,"rb":1416,"stan":1417,"ĠÃº":1418,"ĠÃ¡n":1419,"radas":1420,"Ġagu":1421,"Ġcen":1422,"ĠcÃ³":1423,"elos":1424,"quella":1425,"cidad":1426,"ÃŃr":1427,"Ġlleg":1428,"Ġneces":1429,"Ġsea":1430,"cur":1431,"cuen":1432,"usto":1433,"pareci":1434,"bilidad":1435,"tener":1436,"ĠComo":1437,"Ġabismo":1438,"Ġhecho":1439,"terior":1440,"Ġparece":1441,"culta":1442,"Ġsangre":1443,"Ġvoz":1444,"gusti":1445,"EN":1446,"Tus":1447,"aciÃ³n":1448,"col":1449,"mÃ¡":1450,"mba":1451,"mino":1452,"xi":1453,"Ġamar":1454,"ellos":1455,"Ġhombres":1456,"tivo":1457,"Ġbur":1458,"Ġinter":1459,"Ġmil":1460,"piÃ³":1461,"Ġtri":1462,"manos":1463,"ĠtravÃ©s":1464,"hachÃŃs":1465,"Ġtanto":1466,"Ġoro":1467,"compren":1468,"ĠtambiÃ©n":1469,"trans":1470,"Ġmuerte":1471,"Ġjoven":1472,"AS":1473,"ez":1474,"nue":1475,"ngel":1476,"prim":1477,"vor":1478,"vien":1479,"vado":1480,"zones":1481,"ĠsÃŃ":1482,"Ġatra":1483,"Ġami":1484,"erte":1485,"erÃŃa":1486,"Ġcris":1487,"untad":1488,"ines":1489,"tigo":1490,"ĠfÃºn":1491,"Ã©l":1492,"Ġbas":1493,"tando":1494,"pira":1495,"Ġvir":1496,"Ġsole":1497,"ĠsoÃ±":1498,"sobre":1499,"Ġlejos":1500,"ĠCon":1501,"Ġsenti":1502,"fectos":1503,"Ġhorror":1504,"Ġgenera":1505,"18":1506,"ES":1507,"ete":1508,"fe":1509,"her":1510,"iver":1511,"lÃ³":1512,"sab":1513,"lamente":1514,"Ġamo":1515,"ergÃŃa":1516,"Ġpri":1517,"Ġpuer":1518,"tados":1519,"talidad":1520,"cil":1521,"cien":1522,"Ġestos":1523,"tiles":1524,"diente":1525,"Ġnunca":1526,"ridad":1527,"Ġfantas":1528,"Ġbru":1529,"siÃ³n":1530,"menos":1531,"Ġprodu":1532,"uerte":1533,"Ġtrabajo":1534,"uelve":1535,"Ġpeque":1536,"puÃ©s":1537,"Ġforma":1538,"Ġalgunas":1539,"mejante":1540,"ĠmÃºsica":1541,"ĠÃºlti":1542,"Le":1543,"bor":1544,"cter":1545,"ico":1546,"imag":1547,"pan":1548,"pren":1549,"rmi":1550,"sol":1551,"sino":1552,"tina":1553,"zan":1554,"lada":1555,"Ġado":1556,"Ġacu":1557,"ern":1558,"ĠcÃ¡":1559,"Ġmom":1560,"tada":1561,"ondres":1562,"indi":1563,"ĠlÃŃ":1564,"Ġenfer":1565,"Ġhas":1566,"Ã¡l":1567,"Ġestu":1568,"Ġesfuer":1569,"Ġvuestros":1570,"Ġviento":1571,"algun":1572,"Ġmej":1573,"Ġmiseri":1574,"Ġtierra":1575,"ĠMi":1576,"Ġmano":1577,"telig":1578,"sueÃ±o":1579,"Ġdeseo":1580,"Ġencantado":1581,"Ġtrans":1582,"AN":1583,"He":1584,"Sin":1585,"bien":1586,"dra":1587,"dÃŃ":1588,"gon":1589,"nu":1590,"sor":1591,"yor":1592,"entre":1593,"Ġdeli":1594,"ĠsÃ©":1595,"Ġpon":1596,"Ġpel":1597,"Ġpin":1598,"Ġmos":1599,"Ġlan":1600,"cimiento":1601,"Ġho":1602,"Ġeso":1603,"ticos":1604,"Ġflor":1605,"Ġof":1606,"Ġconden":1607,"Ġbeb":1608,"char":1609,"chado":1610,"lib":1611,"ientras":1612,"Ġnoches":1613,"loso":1614,"Ġinvi":1615,"Ġhacen":1616,"Ġsilen":1617,"Ġsoy":1618,"manas":1619,"tarse":1620,"gir":1621,"ĠpodÃŃa":1622,"caso":1623,"Ġobje":1624,"person":1625,"guiente":1626,"Ġembriaguez":1627,"Ġperfume":1628,"Ġprimera":1629,"........":1630,"ĠÃ¡ngel":1631,"piÃ³mano":1632,"XX":1633,"ajo":1634,"cel":1635,"dan":1636,"fal":1637,"tÃ©":1638,"zcla":1639,"ena":1640,"dese":1641,"estu":1642,"Ġam":1643,"Ġagua":1644,"ervi":1645,"taciÃ³n":1646,"table":1647,"inclusive":1648,"ciosa":1649,"Ġlec":1650,"arro":1651,"Ġespa":1652,"Ġescri":1653,"roga":1654,"Ġfrecuencia":1655,"Ġconsi":1656,"Ġbesos":1657,"Ġefecto":1658,"Ġgu":1659,"tanto":1660,"ĠdespuÃ©s":1661,"ecer":1662,"siempre":1663,"Ġmelan":1664,"Ġilu":1665,"Ġsido":1666,"fierno":1667,"bido":1668,"Ġpoeta":1669,"vamente":1670,"saciÃ³n":1671,"lando":1672,"Ġantes":1673,"natura":1674,"profun":1675,"ĠestÃ¡n":1676,"Ġembargo":1677,"espera":1678,"Ġcasi":1679,"Ġmonstru":1680,"mismo":1681,"Ġnegro":1682,"ternidad":1683,"Ġjuven":1684,"Ġespecie":1685,"Ġbuena":1686,"izon":1687,"ĠpÃ¡li":1688,"Ġmoral":1689,"bos":1690,"cin":1691,"grado":1692,"hor":1693,"mul":1694,"tÃ³n":1695,"dedor":1696,"lados":1697,"laciÃ³n":1698,"Ġsor":1699,"Ġador":1700,"antos":1701,"ÃŃso":1702,"Ġhar":1703,"Ġval":1704,"Ã³r":1705,"dida":1706,"rios":1707,"riÃ³":1708,"Ġfra":1709,"istencia":1710,"culos":1711,"Ġalgo":1712,"Ġalguna":1713,"Ġinqui":1714,"erano":1715,"Ġga":1716,"vidu":1717,"Ġcuya":1718,"fir":1719,"gada":1720,"bir":1721,"ĠDes":1722,"quiera":1723,"Ġespec":1724,"Ġantigu":1725,"Ġhumano":1726,"Ġorgu":1727,"Ġrostro":1728,"ĠUna":1729,"piritual":1730,"ĠpodrÃŃa":1731,"Ġbrazos":1732,"Ġciudad":1733,"gustia":1734,"AD":1735,"Ar":1736,"Una":1737,"atro":1738,"ece":1739,"frecuencia":1740,"pul":1741,"plica":1742,"san":1743,"sal":1744,"uti":1745,"val":1746,"ĠÃºn":1747,"esas":1748,"este":1749,"laban":1750,"raba":1751,"Ġabi":1752,"Ġahora":1753,"Ġampli":1754,"Ġpal":1755,"Ġmara":1756,"unda":1757,"rededor":1758,"Ġunos":1759,"Ġotros":1760,"Ġcontra":1761,"consi":1762,"durante":1763,"Ġimag":1764,"ĠLe":1765,"gio":1766,"ĠDi":1767,"Ġdolores":1768,"Ġarras":1769,"Ġcierto":1770,"ĠCi":1771,"ebres":1772,"ĠĠĠĠĠĠĠĠĠĠĊ":1773,"ĠTÃº":1774,"Ġduda":1775,"ĠHa":1776,"Ġbella":1777,"Ġpecho":1778,"Ġhorizon":1779,"Ġlibro":1780,"Ġlarga":1781,"Ġaquellos":1782,"Ġnaturaleza":1783,"Ġnuevo":1784,"ĠÃģngel":1785,"Ġmejor":1786,"Di":1787,"ON":1788,"OR":1789,"cun":1790,"cab":1791,"cando":1792,"din":1793,"ega":1794,"gles":1795,"han":1796,"llas":1797,"opio":1798,"preci":1799,"sas":1800,"tres":1801,"rados":1802,"Ġagi":1803,"dores":1804,"Ġmin":1805,"cida":1806,"Ġlen":1807,"Ġvag":1808,"Ġvuestro":1809,"titu":1810,"titud":1811,"die":1812,"Ġnosotros":1813,"Ġfal":1814,"Ġfres":1815,"Ġalto":1816,"Ġremordi":1817,"Ġcul":1818,"cora":1819,"Ġdicho":1820,"Ġtumba":1821,"ĠLondres":1822,"ĠSus":1823,"gido":1824,"ĠAsÃŃ":1825,"Ġmayor":1826,"Ã©ndose":1827,"Ġhubi":1828,"Ġimpor":1829,"produ":1830,"Este":1831,"Ġinfinito":1832,"ĠHe":1833,"Ġbello":1834,"Ġcasa":1835,"genes":1836,"senti":1837,"Ġhier":1838,"Ġprofundo":1839,"muy":1840,"cultad":1841,"Ġcolor":1842,"Ġplaceres":1843,"Ġidea":1844,"Ġcruel":1845,"cultades":1846,"Ġmiseria":1847,"Ġpelig":1848,"Ġlector":1849,"AR":1850,"amente":1851,"cÃŃan":1852,"fue":1853,"fli":1854,"fini":1855,"nes":1856,"ĠQue":1857,"Ġdar":1858,"Ġ18":1859,"Ġama":1860,"erme":1861,"erna":1862,"ince":1863,"cidas":1864,"Ġescu":1865,"Ġsua":1866,"Ġfe":1867,"Ġotras":1868,"cados":1869,"segui":1870,"lico":1871,"iencia":1872,"Ġinten":1873,"ques":1874,"tantes":1875,"rosa":1876,"Ãºs":1877,"Ġdescono":1878,"dura":1879,"Ġviol":1880,"ficio":1881,"manidad":1882,"ĠSu":1883,"Ġcausa":1884,"Ġdormi":1885,"Ġlej":1886,"expres":1887,"Ġcorazones":1888,"Ġverdadera":1889,"minu":1890,"Ġvolver":1891,"Ġvoluntad":1892,"Ġprofunda":1893,"Ġmaldi":1894,"Ġvisto":1895,"embriaguez":1896,"Ġvuestras":1897,"Ġmujeres":1898,"pensa":1899,"Ġnatural":1900,"umer":1901,"Ġllama":1902,"puede":1903,"ĠSatÃ¡n":1904,"Ġminu":1905,"Ex":1906,"MÃ¡s":1907,"Vi":1908,"atura":1909,"bas":1910,"bar":1911,"cera":1912,"dÃŃan":1913,"gor":1914,"pr":1915,"posi":1916,"yes":1917,"yec":1918,"zc":1919,"ladas":1920,"Ġder":1921,"Ġdemasiado":1922,"Ġaho":1923,"Ġaquella":1924,"Ġpene":1925,"Ġles":1926,"date":1927,"Ġencontrar":1928,"arse":1929,"Ġuniver":1930,"Ġesto":1931,"Ġvesti":1932,"Ġvosotros":1933,"dios":1934,"tual":1935,"ĠoÃŃdo":1936,"Ġsegu":1937,"Ġsemejante":1938,"Ġbos":1939,"Ġali":1940,"ĠallÃŃ":1941,"Ġalrededor":1942,"ientes":1943,"ĠhacÃŃa":1944,"ĠEra":1945,"Ġcuanto":1946,"sidad":1947,"Ġmemor":1948,"media":1949,"Ġign":1950,"ĠSin":1951,"Ġcamino":1952,"gica":1953,"Ġesperanza":1954,"cerÃŃa":1955,"tenÃŃa":1956,"Ġcir":1957,"ĠMuerte":1958,"ĠserÃ¡":1959,"âĢĶÂ¡":1960,"Ġpies":1961,"Ġembriag":1962,"Ġsollo":1963,"Ġfamili":1964,"Ġveneno":1965,"Ġviejos":1966,"Ġnegros":1967,"sueÃ±os":1968,"gracia":1969,"ĠSeÃ±":1970,"Ġfuerte":1971,"Ġboca":1972,"Ġpersonas":1973,"Ġolvi":1974,"Ġquiere":1975,"Ġpensamientos":1976,"rbol":1977,"ĠfÃºnebres":1978,"ĠmelancÃ³":1979,"cunstan":1980,"!,":1981,"Sus":1982,"bÃŃa":1983,"cta":1984,"dencia":1985,"ebre":1986,"fÃŃsi":1987,"gno":1988,"mol":1989,"nar":1990,"otro":1991,"vora":1992,"zon":1993,"zaba":1994,"Ġon":1995,"encontra":1996,"Ġdebe":1997,"Ġsali":1998,"ertos":1999,"Ġcari":2000,"Ġposible":2001,"one":2002,"ellas":2003,"oro":2004,"ins":2005,"ani":2006,"anas":2007,"ciente":2008,"ciencia":2009,"Ġencuen":2010,"ĠenergÃŃa":2011,"Ã¡cter":2012,"Ġesca":2013,"Ġvien":2014,"tig":2015,"tible":2016,"dice":2017,"dicha":2018,"rir":2019,"Ġfas":2020,"Ġfeli":2021,"ista":2022,"ĠopiÃ³mano":2023,"Ġcons":2024,"Ġconver":2025,"Ġbene":2026,"cada":2027,"ĠalgÃºn":2028,"tero":2029,"tancia":2030,"Ġcuri":2031,"Ġcuales":2032,"Ġcuad":2033,"Ġdesnu":2034,"Ġtre":2035,"mira":2036,"ĠPo":2037,"bios":2038,"Ġsingular":2039,"Ġpais":2040,"Ġpoe":2041,"Ġpoder":2042,"Ġhabita":2043,"tores":2044,"nada":2045,"Ġdan":2046,"leno":2047,"arios":2048,"Ġseno":2049,"hace":2050,"ĠEsta":2051,"Ġobser":2052,"minar":2053,"ĠtenÃŃa":2054,"Ġoscu":2055,"ĠparecÃŃa":2056,"Ġfinal":2057,"Ġnegra":2058,"Ġdecirlo":2059,"tivamente":2060,"Ġazul":2061,"villos":2062,"Ġ\"Â¡":2063,"Ġamante":2064,"Ġeterno":2065,"Ġmultitud":2066,"Ġtienen":2067,"Ġorgullo":2068,"RE":2069,"aza":2070,"apareci":2071,"bus":2072,"cina":2073,"gaba":2074,"il":2075,"maba":2076,"oy":2077,"sÃ³lo":2078,"tuna":2079,"vino":2080,"veces":2081,"Ãī":2082,"Ġaus":2083,"ĠaÃºn":2084,"Ġplan":2085,"Ġpesar":2086,"Ġpunto":2087,"ella":2088,"ine":2089,"ĠlÃ¡n":2090,"Ġhon":2091,"tidad":2092,"Ġne":2093,"riente":2094,"Ġfun":2095,"Ġfan":2096,"Ġsegun":2097,"Ġbesti":2098,"mpe":2099,"cuencia":2100,"ĠallÃ¡":2101,"Ġins":2102,"Ġgar":2103,"Ġmiradas":2104,"Ġrep":2105,"piros":2106,"Ġdestino":2107,"Ġton":2108,"Ġmezcla":2109,"rantes":2110,"Ġmucha":2111,"medi":2112,"medio":2113,"Ġigu":2114,"Ġvivi":2115,"ĠLA":2116,"Ġpode":2117,"Ġhablar":2118,"Ġdomin":2119,"lantes":2120,"Ġlecho":2121,"Ġcielos":2122,"Ella":2123,"osamente":2124,"Ġverdad":2125,"ĠsensaciÃ³n":2126,"ĠÃ©s":2127,"lumb":2128,"Ġmanos":2129,"Ġcompren":2130,"Ġteneb":2131,"Qui":2132,"estad":2133,"Ġpensar":2134,"tÃ¡culo":2135,"Ġsalud":2136,"Ġcolores":2137,"Ġmuertos":2138,"Ġfuerza":2139,"Ġconocido":2140,"Ġperfumes":2141,"Ġpresente":2142,"Ġazu":2143,"ideas":2144,"ĠĠĠĠĠĠĠĊ":2145,"Ġinmensa":2146,"Ġnubes":2147,"Ġquiero":2148,"Ġsecreto":2149,"ajes":2150,"Ġquerido":2151,"Ġgloria":2152,"Ġpalabras":2153,"teligencia":2154,"Ġsilencio":2155,"Ġjuventud":2156,"ĠlÃ¡ngui":2157,"AL":2158,"Ah":2159,"Bajo":2160,"TI":2161,"aunque":2162,"cciones":2163,"dÃ³":2164,"fantas":2165,"mundo":2166,"plan":2167,"tente":2168,"tÃº":2169,"vuel":2170,"xfor":2171,"ye":2172,"zando":2173,"entonces":2174,"decir":2175,"estÃ¡":2176,"ĠdemÃ¡s":2177,"Ġat":2178,"Ġay":2179,"Ġata":2180,"Ġapi":2181,"Ġaven":2182,"Ġce":2183,"Ġcara":2184,"ĠmÃŃs":2185,"tadas":2186,"unta":2187,"orme":2188,"ref":2189,"remos":2190,"Ġqueda":2191,"Ġestas":2192,"Ġvas":2193,"ticu":2194,"Ġnervi":2195,"Ġflo":2196,"ĠfrÃŃo":2197,"Ġodio":2198,"traba":2199,"Ã³nde":2200,"mple":2201,"Ġevi":2202,"Ġefectos":2203,"magen":2204,"segu":2205,"respon":2206,"Ġindi":2207,"Ġrecor":2208,"Ġporque":2209,"Ġcuyo":2210,"pido":2211,"Ġdespi":2212,"Ġtro":2213,"Ġtres":2214,"dul":2215,"Ġdicha":2216,"zados":2217,"Ġmuchas":2218,"mir":2219,"migo":2220,"ĠparaÃŃso":2221,"ĠLo":2222,"palab":2223,"gico":2224,"sole":2225,"vada":2226,"ĠhabrÃŃa":2227,"Ġpropi":2228,"Ġprolon":2229,"compaÃ±":2230,"ĠCa":2231,"cencia":2232,"Ġdroga":2233,"arias":2234,"Ġseres":2235,"Ġhechi":2236,"ĠÃ©po":2237,"hay":2238,"Ġhumana":2239,"ĠniÃ±os":2240,"luvi":2241,"Ġobli":2242,"Ġobstante":2243,"Ġpueb":2244,"Ġpueden":2245,"alizar":2246,"Ġfati":2247,"Ġpupi":2248,"Ġsabe":2249,"crip":2250,"Ġprofundos":2251,"gnÃŃ":2252,"Ġespejo":2253,"tribu":2254,"ĠĠĠĠĠĠĠ":2255,"Ġinmenso":2256,"Ġpose":2257,"Ġvoluptuosidad":2258,"Todo":2259,"Ġeterna":2260,"Ãºbilo":2261,"Ġsufrimiento":2262,"solu":2263,"Ġmomento":2264,"Ġinquie":2265,"xford":2266,"An":2267,"CI":2268,"Ca":2269,"Po":2270,"TE":2271,"TO":2272,"aÃ±os":2273,"bra":2274,"bri":2275,"bres":2276,"dri":2277,"drÃŃa":2278,"gla":2279,"lÃ³n":2280,"mÃ©":2281,"nas":2282,"rer":2283,"vuestra":2284,"vÃŃo":2285,"xtas":2286,"yas":2287,"Ġus":2288,"Ġren":2289,"enla":2290,"enÃ³":2291,"estado":2292,"Ġabre":2293,"Ġapo":2294,"Ġaunque":2295,"Ġmientras":2296,"elle":2297,"rea":2298,"ted":2299,"cioso":2300,"ciendo":2301,"Ã¡date":2302,"Ġvuelve":2303,"didas":2304,"dilla":2305,"ribles":2306,"tumb":2307,"lector":2308,"Ġfar":2309,"Ġocul":2310,"mpa":2311,"Ġeran":2312,"cula":2313,"secuencia":2314,"libro":2315,"quis":2316,"Ġgus":2317,"Ġreco":2318,"rosos":2319,"Ãºm":2320,"Ġdistin":2321,"Ġdiez":2322,"mora":2323,"Ġvivir":2324,"Ġsitu":2325,"gados":2326,"ĠPues":2327,"bia":2328,"ĠSobre":2329,"ĠpaÃŃs":2330,"saciones":2331,"ĠhabÃŃan":2332,"ĠAn":2333,"Ġani":2334,"Ġden":2335,"Ġmateri":2336,"aria":2337,"erio":2338,"Ġabando":2339,"Ġabru":2340,"Ġsentido":2341,"Ã±amo":2342,"rÃŃos":2343,"Ġinfancia":2344,"Ġembria":2345,"Ġfatal":2346,"Ġpartes":2347,"Cual":2348,"famili":2349,"Ġcarne":2350,"presenta":2351,"Ġpens":2352,"Ġliber":2353,"comple":2354,"Ġmonta":2355,"Ġhermana":2356,"telec":2357,"ĠextraÃ±a":2358,"ĠOxford":2359,"Ġvista":2360,"Ġclaridad":2361,"eligi":2362,"Ġgenio":2363,"idea":2364,"Ġruido":2365,"Hacia":2366,"Ġprinci":2367,"Ġemple":2368,"Ġideas":2369,"ĠÃ¡rbol":2370,"Ġborra":2371,"ifiesto":2372,"Ġcompleto":2373,"ĠcÃ³mo":2374,"transfor":2375,"Ġsentimientos":2376,"lÃ³so":2377,"Ġinvierno":2378,"Ġhorizonte":2379,"Ġhubiera":2380,"Ġmemoria":2381,"Ġignora":2382,"ĠapiÃ¡date":2383,"xtasis":2384,"AsÃŃ":2385,"LE":2386,"Lo":2387,"Son":2388,"ade":2389,"ben":2390,"fÃŃ":2391,"fera":2392,"gna":2393,"hasta":2394,"of":2395,"ocu":2396,"rores":2397,"sfera":2398,"tÃŃs":2399,"vÃŃ":2400,"yen":2401,"ĠQu":2402,"ospi":2403,"espe":2404,"esbos":2405,"Ġdeber":2406,"Ġdefini":2407,"Ġaten":2408,"Ġpla":2409,"ĠpÃº":2410,"Ġmue":2411,"und":2412,"ordin":2413,"asÃŃ":2414,"cientes":2415,"Ġllo":2416,"Ã¡ver":2417,"Ġestre":2418,"Ġescla":2419,"Ġescal":2420,"ĠvÃŃ":2421,"Ġverano":2422,"tien":2423,"tiÃ³":2424,"tivos":2425,"oma":2426,"alu":2427,"risa":2428,"Ġsur":2429,"Ġsutil":2430,"lec":2431,"iso":2432,"Ġconf":2433,"Ġban":2434,"Ġbro":2435,"choso":2436,"mpara":2437,"cual":2438,"mago":2439,"lido":2440,"liza":2441,"Ġnoble":2442,"ĠĠĠĠĠĠĊ":2443,"Ġindo":2444,"Ġgente":2445,"viÃ³":2446,"vierte":2447,"Ġreina":2448,"contemp":2449,"joven":2450,"paci":2451,"bio":2452,"Ġpala":2453,"Ġpareci":2454,"sul":2455,"gil":2456,"vag":2457,"quila":2458,"Ġesplen":2459,"ĠAna":2460,"Ġangustia":2461,"larse":2462,"Entre":2463,"Ġmadu":2464,"ĠYa":2465,"ulgar":2466,"peti":2467,"ĠEsp":2468,"Ġobra":2469,"ign":2470,"Ġaspecto":2471,"rÃŃas":2472,"Ġorden":2473,"Ġsuelo":2474,"ĠVI":2475,"Ġsoles":2476,"Ġpasado":2477,"Ġcualquier":2478,"genera":2479,"estaba":2480,"Ġsaber":2481,"Ġdosis":2482,"Ġhorrible":2483,"obje":2484,"Ġvaga":2485,"Ġprepara":2486,"Ġlargas":2487,"monio":2488,"Ġvieja":2489,"Ġfuego":2490,"Ġllega":2491,"Ġgracias":2492,"Porque":2493,"ĠlÃ¡mpara":2494,"Ġazur":2495,"Ġterrible":2496,"Ġpersona":2497,"Ġsombra":2498,"mÃ³sfera":2499,"Ġbril":2500,"trÃ¡s":2501,"todavÃŃa":2502,"Ġrefle":2503,"Ġhallaba":2504,"fesiones":2505,"Ġpalabra":2506,"Ġtriun":2507,"Ġsolem":2508,"Ġfantasma":2509,"imaginaciÃ³n":2510,"personas":2511,"Ġilumina":2512,"pensamiento":2513,"umerosos":2514,"Desp":2515,"Hab":2516,"Nada":2517,"Tal":2518,"cable":2519,"dÃ¡ver":2520,"edo":2521,"fra":2522,"fÃ¡":2523,"fÃŃa":2524,"gÃ³":2525,"gres":2526,"ias":2527,"ito":2528,"ible":2529,"lleg":2530,"mer":2531,"rÃ³":2532,"rÃ¡n":2533,"tÃ©n":2534,"zÃ³":2535,"zura":2536,"Ãĵ":2537,"ĠÃŃn":2538,"encias":2539,"encontrar":2540,"dero":2541,"demos":2542,"estar":2543,"espiritual":2544,"raban":2545,"Ġafi":2546,"Ġacos":2547,"ĠademÃ¡s":2548,"ertas":2549,"Ġcel":2550,"uegos":2551,"ĠmÃŃa":2552,"uno":2553,"ormal":2554,"recor":2555,"ÃŃdos":2556,"Ġena":2557,"Ġheri":2558,"Ġesti":2559,"ome":2560,"div":2561,"diciÃ³n":2562,"diendo":2563,"Ġnin":2564,"Ġnombre":2565,"Ġfla":2566,"Ġfran":2567,"ĠfrÃ¡":2568,"Ã©tica":2569,"isis":2570,"Ġoh":2571,"Ġoto":2572,"Ġolor":2573,"Ġconsue":2574,"Ġsed":2575,"Ġsedu":2576,"trabajo":2577,"camente":2578,"cadas":2579,"Ġalcan":2580,"Ã±ar":2581,"mados":2582,"segÃºn":2583,"ĠcompaÃ±":2584,"Ġinfierno":2585,"quien":2586,"Ġge":2587,"Ġgusto":2588,"conci":2589,"terrible":2590,"Ġdesi":2591,"sido":2592,"sito":2593,"Ġdijo":2594,"Ġdifun":2595,"Ġdifer":2596,"mbos":2597,"Ġsolita":2598,"Ġmismos":2599,"Ġpadre":2600,"Ġcaus":2601,"Ġexci":2602,"toria":2603,"Ġlevan":2604,"Ġarte":2605,"Ġardiente":2606,"vez":2607,"Ġmala":2608,"lencia":2609,"ĠserÃŃa":2610,"ĠTal":2611,"hacer":2612,"minos":2613,"minado":2614,"Ġestr":2615,"Ġpiel":2616,"Ġsonidos":2617,"Ġinfa":2618,"ĠHab":2619,"Ġrespon":2620,"ĠVen":2621,"espÃŃritu":2622,"Ġcorre":2623,"Ġcompla":2624,"jerci":2625,"ĠacciÃ³n":2626,"Ġlibre":2627,"Ġrisa":2628,"osidades":2629,"Ġllena":2630,"ĠRe":2631,"ficios":2632,"Ġencanto":2633,"Ġespejos":2634,"Ġcalle":2635,"Ġalgunos":2636,"Ġrecuerdos":2637,"juven":2638,"autor":2639,"cionar":2640,"pueden":2641,"icamente":2642,"plicar":2643,"pÃ³sito":2644,"Ġhermosa":2645,"III":2646,"mÃ¡genes":2647,"primera":2648,"Ġamigos":2649,"Ġvirtud":2650,"ĠsoÃ±ar":2651,"Ġpuerta":2652,"individu":2653,"Ġesfuerzos":2654,"Ġmostrar":2655,"Ġbebe":2656,"Ġobjeto":2657,"Ġsuave":2658,"Ġlejano":2659,"Ġuniverso":2660,"mediatamente":2661,"Ġcircunstan":2662,"Ġviviente":2663,"enlace":2664,"!Â».":2665,"CÃ³":2666,"Era":2667,"IS":2668,"Pa":2669,"TA":2670,"Te":2671,"Ten":2672,"UN":2673,"bene":2674,"buen":2675,"cÃ³n":2676,"fri":2677,"hal":2678,"hombres":2679,"ite":2680,"iente":2681,"jan":2682,"llen":2683,"mÃºsi":2684,"nuestro":2685,"ple":2686,"vesti":2687,"Ġ[":2688,"ĠÃ³":2689,"Ġza":2690,"ĠrÃŃ":2691,"Ġuti":2692,"ĠÃī":2693,"enas":2694,"ensa":2695,"enfer":2696,"ramente":2697,"Ġdejar":2698,"Ġsos":2699,"Ġade":2700,"Ġasi":2701,"Ġagon":2702,"Ġcli":2703,"Ġcosa":2704,"Ġpali":2705,"donde":2706,"rela":2707,"inado":2708,"inmen":2709,"Ġluna":2710,"Ġluego":2711,"Ġello":2712,"Ġenga":2713,"Ġencontra":2714,"Ġhis":2715,"Ġesque":2716,"Ã³ton":2717,"tidi":2718,"ticas":2719,"tigua":2720,"tivas":2721,"diera":2722,"diante":2723,"alo":2724,"ril":2725,"riendo":2726,"tusi":2727,"ĠfÃ¡":2728,"Ġfru":2729,"ĠsegÃºn":2730,"Ġbe":2731,"trado":2732,"Ġeternidad":2733,"Ġalco":2734,"Ã±or":2735,"mara":2736,"mada":2737,"lidos":2738,"iene":2739,"resis":2740,"Ġcomien":2741,"vidad":2742,"terra":2743,"piro":2744,"Ġdescen":2745,"Ġdescan":2746,"Ġdeslumb":2747,"Ġtes":2748,"sia":2749,"sibilidad":2750,"Ġmuchos":2751,"Ġsir":2752,"Ġsolo":2753,"Ġsolamente":2754,"tarÃ¡":2755,"Ã¡ntas":2756,"Ġpaz":2757,"sur":2758,"sufici":2759,"ĠcadÃ¡ver":2760,"Ġexpres":2761,"Ġexistencia":2762,"Ġpodido":2763,"Ġpermi":2764,"Ġperdido":2765,"Ġespantos":2766,"Ġarmon":2767,"treet":2768,"ĠCh":2769,"ĠMÃ¡s":2770,"cosas":2771,"Ġtema":2772,"ĠĠĠĠĠĠĠĠĠ":2773,"voca":2774,"venes":2775,"ĠTus":2776,"ĠjÃºbilo":2777,"Ġnie":2778,"ĠniÃ±a":2779,"terio":2780,"Â»,":2781,"Ġpuedo":2782,"Ġsonrisa":2783,"Ġinfan":2784,"Ġinfini":2785,"Ġrespecto":2786,"esperanza":2787,"ĠrazÃ³n":2788,"presen":2789,"Ġsabio":2790,"Ġacari":2791,"recuer":2792,"Ġvac":2793,"Ġvapor":2794,"Ġprofundi":2795,"ĠridÃŃ":2796,"tempera":2797,"ĠBel":2798,"ĠextraÃ±o":2799,"pone":2800,"impor":2801,"Ġformas":2802,"volencia":2803,"riatura":2804,"Ġdeseos":2805,"Ġfuera":2806,"Ġrin":2807,"Ġrom":2808,"Ġllegar":2809,"ÃŃodo":2810,"Ġdulzura":2811,"pens":2812,"ĠNuestra":2813,"ĠespÃŃritus":2814,"ĠĠĠĠĠĠĠĠĠĠĠ":2815,"ganta":2816,"Ġprimer":2817,"Ġalguno":2818,"ĠUN":2819,"Ġquienes":2820,"dentemente":2821,"puesto":2822,"Ġhoras":2823,"parecen":2824,"pirituales":2825,"Ġamantes":2826,"Ġnuestras":2827,"ĠTodo":2828,"ĠTodos":2829,"Ġdivino":2830,"Ġpensamiento":2831,"perior":2832,"Ġgeneralmente":2833,"ĠlÃŃmp":2834,"Ã¡lisis":2835,"Ġesfuerzo":2836,"algunos":2837,"Ġlangui":2838,"................":2839,"Ġespacio":2840,"ĠCielo":2841,"Ġhierro":2842,"incey":2843,"Ġderra":2844,"ĠSeÃ±ora":2845,"Ġcuadro":2846,"Ġgarganta":2847,"refle":2848,"enÃ³menos":2849,"telectual":2850,"ÃĵN":2851,"CÃ³mo":2852,"tusias":2853,"NO":2854,"Pro":2855,"RO":2856,"ah":2857,"agu":2858,"amÃ¡s":2859,"bado":2860,"bren":2861,"cÃ¡":2862,"dÃ³n":2863,"ed":2864,"far":2865,"fÃ©":2866,"fren":2867,"gl":2868,"ger":2869,"ili":2870,"idado":2871,"jÃ³":2872,"jemp":2873,"lÃ©":2874,"ojos":2875,"pla":2876,"placer":2877,"th":2878,"udo":2879,"uÃ©s":2880,"Ã¼":2881,"Ãį":2882,"Ġ}":2883,"Ġras":2884,"encan":2885,"entÃ¡n":2886,"dea":2887,"deza":2888,"demasiado":2889,"esado":2890,"lag":2891,"lares":2892,"Ġdere":2893,"Ġdele":2894,"ĠaÃ±o":2895,"Ġamado":2896,"ertamente":2897,"Ġch":2898,"Ġcri":2899,"Ġcriatura":2900,"Ġpan":2901,"uela":2902,"dolor":2903,"Ġmer":2904,"Ġmesa":2905,"taÃ±o":2906,"ele":2907,"reo":2908,"Ġlamenta":2909,"antigu":2910,"ciar":2911,"ciosas":2912,"cilmente":2913,"dados":2914,"Ġhun":2915,"Ġhomb":2916,"Ġhospi":2917,"ard":2918,"Ġvali":2919,"ĠvÃ©r":2920,"Ġvulgar":2921,"tiendo":2922,"tifici":2923,"diciones":2924,"dillas":2925,"algo":2926,"Ġsubli":2927,"tudes":2928,"tumbre":2929,"Ġfer":2930,"Ġfrecu":2931,"Ġocas":2932,"Ġsegui":2933,"Ġben":2934,"Ġbon":2935,"chan":2936,"cara":2937,"caus":2938,"curi":2939,"Ã±ado":2940,"sea":2941,"Ġcomen":2942,"Ġcomida":2943,"Ġinmor":2944,"Ġincl":2945,"Ġinstru":2946,"usiÃ³n":2947,"vio":2948,"cedor":2949,"conver":2950,"Ġcubi":2951,"Ġcuyos":2952,"piria":2953,"Ãºtil":2954,"Ġdesgar":2955,"Ġdesarro":2956,"Ġdesgracia":2957,"sible":2958,"silen":2959,"ducir":2960,"rando":2961,"zada":2962,"Ġtomado":2963,"mia":2964,"Ġsig":2965,"Ġsigue":2966,"Ġlocura":2967,"mante":2968,"ĠPa":2969,"bil":2970,"ĠSer":2971,"Ġpat":2972,"Ġpapel":2973,"gia":2974,"Ġexcesi":2975,"sopor":2976,"solamente":2977,"vados":2978,"vaciÃ³n":2979,"Ġhabla":2980,"ĠDEL":2981,"empos":2982,"tormenta":2983,"tenido":2984,"Ġtiempos":2985,"compa":2986,"jada":2987,"centes":2988,"Ġmaj":2989,"Ġmaes":2990,"ĠmagnÃŃ":2991,"Ġtras":2992,"ultado":2993,"Ġabis":2994,"ĠTi":2995,"Ġduerme":2996,"Ġverde":2997,"parable":2998,"Ġsenos":2999,"ĠsentÃŃa":3000,"ĠnavÃŃo":3001,"Ġhumanidad":3002,"Ġestaban":3003,"lugar":3004,"Ġimpul":3005,"Ġimperio":3006,"Ġobtener":3007,"Escu":3008,"Ġinfern":3009,"Ġpasos":3010,"gend":3011,"genu":3012,"jeros":3013,"rarse":3014,"Ġactu":3015,"Ġcreo":3016,"Ġcabal":3017,"Ġcabellos":3018,"Ġhizo":3019,"Ġpregun":3020,"Ġfil":3021,"ĠRaza":3022,"Ġclaro":3023,"volver":3024,"Ġdisminu":3025,"Ġrel":3026,"Ġllev":3027,"Ġgracia":3028,"tinu":3029,"ganos":3030,"Ġalegre":3031,"varse":3032,"Ġnueva":3033,"ĠpÃ¡jar":3034,"infancia":3035,"Ġtristeza":3036,"parece":3037,"Ġborde":3038,"Ġmisteriosa":3039,"Ġhermoso":3040,"Ġsecretos":3041,"Ġblanco":3042,"Ġquerida":3043,"cÃ©ano":3044,"Ġllegado":3045,"Ġnecesita":3046,"Ġbastante":3047,"Ġsoledad":3048,"ĠsoÃ±ador":3049,"ĠpequeÃ±a":3050,"Ġenfermo":3051,"Ġtransfor":3052,"Ġadorme":3053,"Ġantiguas":3054,"Ġmaravillos":3055,"ĠimaginaciÃ³n":3056,"Ġremordimiento":3057,"Ġminuto":3058,"Ġsollozos":3059,"ĠhabitaciÃ³n":3060,"Ġigual":3061,"Ġazules":3062,"ticular":3063,"Ġpueblo":3064,"lÃ³sofo":3065,"ocupa":3066,"ĠfrÃ¡gil":3067,"resistible":3068,"\"Â¡":3069,"Dios":3070,"RA":3071,"Sa":3072,"atra":3073,"agi":3074,"acciÃ³n":3075,"bon":3076,"cr":3077,"cÃ¡n":3078,"cinaciÃ³n":3079,"ego":3080,"emos":3081,"efectos":3082,"fos":3083,"frÃŃo":3084,"gente":3085,"idas":3086,"igu":3087,"iosa":3088,"ilu":3089,"jus":3090,"jaba":3091,"mini":3092,"num":3093,"nunca":3094,"pado":3095,"pora":3096,"rÃŃan":3097,"triste":3098,"tinieblas":3099,"umen":3100,"urante":3101,"vana":3102,"yÃ³":3103,"Ġu":3104,"Ġis":3105,"ĠrÃŃo":3106,"ĠÃ³r":3107,"dece":3108,"debi":3109,"decer":3110,"decÃŃa":3111,"lacable":3112,"rable":3113,"Ġdedos":3114,"ĠdebÃŃa":3115,"Ġalas":3116,"Ġatre":3117,"erse":3118,"Ġchi":3119,"Ġciencia":3120,"Ġpun":3121,"Ġpol":3122,"Ġpros":3123,"Ġpeso":3124,"uelas":3125,"ueba":3126,"dole":3127,"Ġmas":3128,"Ġmol":3129,"undos":3130,"rece":3131,"inte":3132,"invi":3133,"incl":3134,"ingles":3135,"ciles":3136,"cilla":3137,"Ġlluvi":3138,"Ġescen":3139,"Ġespiritual":3140,"Ġvuel":3141,"Ã³ve":3142,"tida":3143,"alguna":3144,"rias":3145,"riba":3146,"Ġsupre":3147,"Ġsufici":3148,"rora":3149,"turo":3150,"tulo":3151,"lejos":3152,"legio":3153,"Ġfec":3154,"Ġful":3155,"Ġconfi":3156,"Ġsepara":3157,"ĠbÃ³ve":3158,"Ġequi":3159,"locura":3160,"cuya":3161,"respecto":3162,"losÃ³":3163,"Ġinclusive":3164,"Ġhambre":3165,"viera":3166,"vimiento":3167,"Ġmilag":3168,"Ġreti":3169,"cede":3170,"tana":3171,"lasfe":3172,"Ġdesa":3173,"Ġdescu":3174,"siones":3175,"Ġdiver":3176,"goci":3177,"mbo":3178,"mbas":3179,"mblor":3180,"Ġtomar":3181,"medad":3182,"mil":3183,"Ġil":3184,"Ġimagen":3185,"ĠimÃ¡genes":3186,"desde":3187,"menterio":3188,"Ġsopor":3189,"figu":3190,"ĠLXX":3191,"tarÃ©":3192,"moso":3193,"noble":3194,"noche":3195,"Ġcapi":3196,"Ġcambi":3197,"ĠperÃŃodo":3198,"ĠAr":3199,"cerdo":3200,"Ġardor":3201,"Ġartis":3202,"vela":3203,"âĢľ":3204,"âĢĿ":3205,"ĠMar":3206,"verdadera":3207,"ĠdÃ©":3208,"porque":3209,"podÃŃa":3210,"Ġtemor":3211,"casi":3212,"Ġhemos":3213,"Ġsentir":3214,"Ġnadie":3215,"ĠÃ©xtasis":3216,"hacia":3217,"agrada":3218,"Ġjuegos":3219,"Ġimpre":3220,"recido":3221,"Esta":3222,"EstÃ¡":3223,"risas":3224,"ĠHu":3225,"Ġresplan":3226,"Ġbai":3227,"Ġbellos":3228,"espantos":3229,"Ġpasar":3230,"Ġcaso":3231,"Ġfacultades":3232,"Ġmovimiento":3233,"Ġpuro":3234,"Ġparecer":3235,"Ġparecen":3236,"obser":3237,"obstante":3238,"Ġvaci":3239,"clama":3240,"ĠâĢĶÂ¡":3241,"misteri":3242,"ĠmÃŃo":3243,"Ġapenas":3244,"embros":3245,"stantemente":3246,"Ġperfumado":3247,"ĠĠĠĠĠĠĠĠĠĠĠĊ":3248,"uptuosidad":3249,"Ġbotel":3250,"Hay":3251,"Ġgoces":3252,"infinito":3253,"ĠsombrÃŃo":3254,"Ġbuscar":3255,"Ġmisterioso":3256,"ĠJu":3257,"ĠmÃ¡r":3258,"ajero":3259,"Ġpreciso":3260,"Ġdivina":3261,"teriormente":3262,"Ġgeneral":3263,"ciende":3264,"imagin":3265,"algunas":3266,"Ġhogar":3267,"ĠÃ¡ngeles":3268,"Ġgui":3269,"ĠpÃ¡lida":3270,"Ġsorpren":3271,"ĠDesde":3272,"Ġabierto":3273,"Ġvagab":3274,"Ġremordimientos":3275,"Ġimporta":3276,"sentimientos":3277,"Ġverdaderamente":3278,"princi":3279,"Ġbosques":3280,"Ġencuentra":3281,"Ġvientre":3282,"Ġfelicidad":3283,"Ġpaisaje":3284,"Ġpoetas":3285,"Ġreposo":3286,"Ġtono":3287,"Ġtenebroso":3288,"QuiÃ©n":3289,"ĠatmÃ³sfera":3290,"palabras":3291,"glaterra":3292,"Ġusted":3293,"ĠvÃŃcti":3294,"Ġesplendor":3295,"Ġenamo":3296,"Ġesquele":3297,"Ġalcoba":3298,"Ġnieve":3299,"Ġhombros":3300,"Ġinfernal":3301,"numera":3302,"Ay":3303,"Hi":3304,"Hasta":3305,"LO":3306,"Nos":3307,"Pues":3308,"VI":3309,"aquÃŃ":3310,"afli":3311,"bera":3312,"bundo":3313,"clu":3314,"dras":3315,"eci":3316,"eja":3317,"ecido":3318,"ges":3319,"gesti":3320,"gÃŃas":3321,"hÃŃ":3322,"ioso":3323,"lones":3324,"lino":3325,"luego":3326,"mom":3327,"maban":3328,"meras":3329,"pin":3330,"pales":3331,"rse":3332,"ses":3333,"sÃ³":3334,"sesto":3335,"vuelve":3336,"zco":3337,"ĠÃ¡s":3338,"entos":3339,"energÃŃa":3340,"deli":3341,"deros":3342,"eses":3343,"Ġdeja":3344,"Ġdelica":3345,"ĠsÃ¡":3346,"Ġace":3347,"Ġater":3348,"Ġazar":3349,"Ġagra":3350,"Ġagre":3351,"Ġafir":3352,"Ġafli":3353,"Ġcesar":3354,"Ġpleno":3355,"uelo":3356,"ueles":3357,"ĠmÃ©":3358,"taciones":3359,"taban":3360,"orÃŃa":3361,"orden":3362,"rera":3363,"instante":3364,"queda":3365,"cial":3366,"ciosos":3367,"cierto":3368,"ĠensueÃ±o":3369,"Ġentero":3370,"Ġenorme":3371,"Ġhol":3372,"ares":3373,"arÃ¡":3374,"Ġvano":3375,"Ã³mago":3376,"omin":3377,"didos":3378,"dica":3379,"dico":3380,"digi":3381,"dicos":3382,"ĠnÃºm":3383,"Ġnumerosos":3384,"rotes":3385,"Ġfras":3386,"ĠfrÃŃa":3387,"Ġfir":3388,"Ã©c":3389,"Ġolas":3390,"Ġconso":3391,"Ġconser":3392,"Ġsepul":3393,"Ġbu":3394,"Ġblasfe":3395,"mpo":3396,"mpsesto":3397,"Ġetern":3398,"cau":3399,"causa":3400,"Ġalmi":3401,"Ã±al":3402,"mav":3403,"separa":3404,"secre":3405,"Ġcome":3406,"Ġinstante":3407,"Ġinteligencia":3408,"quina":3409,"Ġglo":3410,"Ġgol":3411,"adona":3412,"vieron":3413,"vicios":3414,"Ġmirar":3415,"Ġmiedo":3416,"Ġmiembros":3417,"Ġrey":3418,"conce":3419,"confi":3420,"terna":3421,"pie":3422,"guien":3423,"Ġdesli":3424,"Ġdespe":3425,"Ġdescri":3426,"Ġdestel":3427,"Ġdespreci":3428,"Ġdesdicha":3429,"Ġdesenlace":3430,"ĠtÃŃ":3431,"Ġtesti":3432,"Ġmetal":3433,"rano":3434,"Ġdios":3435,"ĠdirÃŃa":3436,"Ġdign":3437,"Ġturb":3438,"milla":3439,"Ġvia":3440,"Ġviva":3441,"Ġviaje":3442,"mentar":3443,"Ġsiente":3444,"ficos":3445,"filosÃ³":3446,"ĠLesbos":3447,"paz":3448,"gadas":3449,"ĠPar":3450,"Ġexten":3451,"Ġhabi":3452,"rump":3453,"miendo":3454,"Ġperci":3455,"Ġperfec":3456,"Ġespal":3457,"Ġesperan":3458,"torio":3459,"Ġantor":3460,"Ġarre":3461,"Ġarran":3462,"Ġartifici":3463,"Ġproyec":3464,"comen":3465,"ĠMon":3466,"Entonces":3467,"ĠElla":3468,"casa":3469,"excesi":3470,"existencia":3471,"Ã©nero":3472,"ĠTu":3473,"agera":3474,"Ġjunto":3475,"Ġjusto":3476,"Ġhume":3477,"ĠEste":3478,"ĠEsto":3479,"propor":3480,"carÃ¡cter":3481,"radamente":3482,"teriores":3483,"ĠestÃ³mago":3484,"Ġpueda":3485,"Ġsonido":3486,"Ġlujo":3487,"Ġlumin":3488,"Ġorig":3489,"Ġrayo":3490,"Ġmarcha":3491,"Ġfavor":3492,"Ġmenor":3493,"habÃŃan":3494,"Ġtener":3495,"sentido":3496,"Ġmoder":3497,"facultad":3498,"facultades":3499,"Ġcaridad":3500,"ĠcarÃ¡cter":3501,"Ġcree":3502,"Ġhorren":3503,"Ġlitera":3504,"obli":3505,"Ġbienestar":3506,"Ġprofundas":3507,"ferencia":3508,"ĠmonÃ³ton":3509,"Ġpreco":3510,"Ġlargos":3511,"ÃŃnto":3512,"Ġhermanas":3513,"quiere":3514,"quieren":3515,"pugn":3516,"Ġfiesta":3517,"gnifi":3518,"Ġviejas":3519,"ĠextraÃ±as":3520,"Ġextravag":3521,"Ġllenos":3522,"adre":3523,"Ġvisiones":3524,"cuerdo":3525,"embargo":3526,"ĠÂ«Â¡":3527,"conoces":3528,"Ġjuz":3529,"visiones":3530,"Ġencantos":3531,"Ġgrave":3532,"Ġfuertes":3533,"Ġdulces":3534,"Ġbueno":3535,"ĠNa":3536,"Ġcalma":3537,"cÃ³mo":3538,"ĠprÃ³":3539,"infini":3540,"ĠUno":3541,"Ġpiedra":3542,"Ġgrito":3543,"pelig":3544,"Ġcontemplar":3545,"ĠmÃ¡gi":3546,"Ġhermosos":3547,"Ġrefres":3548,"Ġcampos":3549,"Ġciudades":3550,"Ġtempera":3551,"diÃ³s":3552,"ctivos":3553,"nueva":3554,"nuevo":3555,"vientes":3556,"Ġamigo":3557,"Ġcrisis":3558,"Ġcristal":3559,"ĠfÃºnebre":3560,"Ġsentidos":3561,"Ġproduce":3562,"ĠpequeÃ±o":3563,"ĠÃºltimos":3564,"tinaje":3565,"ĠcÃ¡li":3566,"ĠcÃ¡Ã±amo":3567,"Ġencantador":3568,"sorpren":3569,"Ġobjetos":3570,"Ġmonstruo":3571,"ĠespectÃ¡culo":3572,"Ġlentamente":3573,"corazÃ³n":3574,"Ġmaldito":3575,"Ġpenetran":3576,"Ġseguro":3577,"Ġfamilia":3578,"Ġdanza":3579,"Ġbestia":3580,"ĠÃ©ste":3581,"Ġdespierta":3582,"solem":3583,"Ġobligado":3584,"ĠmontaÃ±as":3585,"Ġprincipio":3586,"ĠQuincey":3587,"especie":3588,"ĠpÃºbli":3589,"ĠotoÃ±o":3590,"Ġmalayo":3591,"Ġestrellas":3592,"Ġcircunstancias":3593,"recuerdo":3594,"Ġlanguidez":3595,"tusiasmo":3596,"brenatura":3597,"!)":3598,"?\"":3599,"CA":3600,"Col":3601,"DI":3602,"Esa":3603,"JamÃ¡s":3604,"MI":3605,"Mu":3606,"Mas":3607,"SP":3608,"Tiene":3609,"VIII":3610,"ap":3611,"ater":3612,"aten":3613,"ahora":3614,"aquella":3615,"ck":3616,"droga":3617,"eas":3618,"edad":3619,"frecu":3620,"feli":3621,"gando":3622,"grar":3623,"ginas":3624,"gÃ¼":3625,"imo":3626,"iles":3627,"jes":3628,"lente":3629,"llar":3630,"mando":3631,"nado":3632,"neces":3633,"pali":3634,"pable":3635,"piso":3636,"siste":3637,"tun":3638,"tÃ¡s":3639,"tones":3640,"tru":3641,"vul":3642,"verano":3643,"xto":3644,"Ġeri":3645,"ĠrÃ¡":3646,"Ġur":3647,"enos":3648,"dere":3649,"deado":3650,"deras":3651,"esfuer":3652,"labios":3653,"raciÃ³n":3654,"Ġdevo":3655,"ĠdecÃŃa":3656,"Ġsiento":3657,"ĠsÃºbi":3658,"Ġafec":3659,"Ġabajo":3660,"Ġagran":3661,"Ġacaso":3662,"Ġatormenta":3663,"ere":3664,"erten":3665,"Ġcin":3666,"ĠcrÃŃ":3667,"Ġcuel":3668,"Ġcho":3669,"Ġpien":3670,"Ġmus":3671,"onar":3672,"onados":3673,"uniÃ³n":3674,"oros":3675,"recÃŃa":3676,"inqui":3677,"infor":3678,"indis":3679,"inteligencia":3680,"inmediatamente":3681,"ase":3682,"asiÃ³n":3683,"Ġlado":3684,"Ġlabios":3685,"anta":3686,"cima":3687,"Ġlig":3688,"Ġencer":3689,"Ġencen":3690,"Ġentera":3691,"Ġqueb":3692,"arte":3693,"Ã¡lo":3694,"Ġescar":3695,"Ġvan":3696,"Ġvari":3697,"ticia":3698,"dito":3699,"digo":3700,"rido":3701,"rico":3702,"rientes":3703,"Ġsub":3704,"Ġsumer":3705,"levan":3706,"Ġfur":3707,"ĠfÃŃsi":3708,"Ã©ro":3709,"ablo":3710,"abando":3711,"ispo":3712,"Ġole":3713,"Ġojo":3714,"Ġotor":3715,"Ġopri":3716,"ĠoÃŃdos":3717,"Ġcondu":3718,"Ġconcen":3719,"Ġcontinu":3720,"ĠseÃ±or":3721,"Ġbi":3722,"dosis":3723,"Ġedad":3724,"Ġeva":3725,"Ġevo":3726,"cuales":3727,"Ġalta":3728,"Ġalmas":3729,"Ġaltura":3730,"materi":3731,"segun":3732,"litera":3733,"Ġnoc":3734,"Ġnota":3735,"resiones":3736,"Ġcomba":3737,"ĠcomÃºn":3738,"Ġgas":3739,"Ġgrado":3740,"adores":3741,"vial":3742,"Ġredo":3743,"Ġreci":3744,"consecuencia":3745,"constantemente":3746,"terno":3747,"Ġcuar":3748,"Ġcuenta":3749,"Ġcuchi":3750,"pita":3751,"gulares":3752,"Ġdesper":3753,"Ġtron":3754,"Ġmeta":3755,"Ġdire":3756,"Ġdiri":3757,"Ġdientes":3758,"Ġdigno":3759,"Ġmuros":3760,"mbÃ³":3761,"Ġtur":3762,"Ġtoma":3763,"oras":3764,"mita":3765,"midos":3766,"Ġigno":3767,"descono":3768,"Ġvio":3769,"Ġvigi":3770,"Ġvive":3771,"Ġvigor":3772,"mentas":3773,"Ġsiete":3774,"Ġsiguiente":3775,"Ġsois":3776,"fico":3777,"manera":3778,"manifiesto":3779,"ĠLOS":3780,"tarme":3781,"gata":3782,"trodu":3783,"supon":3784,"Ġextre":3785,"Ġexha":3786,"Ġexperi":3787,"Ġpobres":3788,"Ġhablado":3789,"quiÃ©n":3790,"Ġperman":3791,"Ġpereza":3792,"Ġperez":3793,"ĠperdÃ³n":3794,"Ġespera":3795,"ĠAbel":3796,"ĠAsia":3797,"cerÃ¡":3798,"Ġtier":3799,"Ġantigua":3800,"ĠMU":3801,"jadas":3802,"ĠdÃ³nde":3803,"poco":3804,"ĠĠĠĠĠĠĠĠĠĠĠĠ":3805,"Ġquer":3806,"ĠquerÃŃa":3807,"erido":3808,"excep":3809,"Ġveo":3810,"Ġvela":3811,"Ġabra":3812,"Ġabsolu":3813,"Ġabund":3814,"talmente":3815,"Deja":3816,"Ġcoraje":3817,"jecu":3818,"dentes":3819,"peque":3820,"Ġhura":3821,"Ġhumanos":3822,"uestras":3823,"luz":3824,"Ġimplacable":3825,"llamar":3826,"propÃ³sito":3827,"prodigi":3828,"carse":3829,"minables":3830,"ombro":3831,"ĠestÃº":3832,"ĠestÃŃo":3833,"Ġastros":3834,"Ġpierna":3835,"Ġorien":3836,"Ġbatal":3837,"espec":3838,"Ġrazon":3839,"Ġpase":3840,"ĠpasiÃ³n":3841,"Ġmares":3842,"Ġmarchi":3843,"Ġcasu":3844,"Ġfatalidad":3845,"Ġcualquiera":3846,"Ġcorrer":3847,"hablar":3848,"habrÃŃa":3849,"Ġparticular":3850,"Ġamores":3851,"mbiente":3852,"Ġvencido":3853,"Ġvencedor":3854,"Ġcanta":3855,"Ġcaro":3856,"Ġcarca":3857,"Ġpura":3858,"Ġpudiera":3859,"irre":3860,"Ġcrea":3861,"Ġcabo":3862,"Ġpena":3863,"Ġhijos":3864,"ferente":3865,"compensa":3866,"ĠmontÃ³n":3867,"Ġcerca":3868,"Ġaplica":3869,"Ġfiel":3870,"monios":3871,"monstru":3872,"ĠBajo":3873,"Ġnegras":3874,"Ġextracto":3875,"Ġfortuna":3876,"Ġclase":3877,"voluntad":3878,"preocupa":3879,"vista":3880,"visiÃ³n":3881,"Ġreligi":3882,"Ġsacu":3883,"hecho":3884,"Ġconoce":3885,"Ġconocimiento":3886,"ĠNoche":3887,"fuerza":3888,"horas":3889,"tinos":3890,"tinas":3891,"ĠFran":3892,"Ġrostros":3893,"Ġpresen":3894,"Ġmortales":3895,"ĠPorque":3896,"Ġtardes":3897,"Ġideal":3898,"grandes":3899,"Ġjoyas":3900,"LAS":3901,"ĠsombrÃŃa":3902,"Ġmedias":3903,"puesta":3904,"Ġdama":3905,"Ġgritos":3906,"Ġbrillo":3907,"paÃ±ol":3908,"Ġadmira":3909,"Ġmisterio":3910,"Ġvoluptuosidades":3911,"trÃ³":3912,"Ġpesada":3913,"Ġpesados":3914,"ĠmÃºsico":3915,"Ġeres":3916,"Ġolvido":3917,"Ġirri":3918,"Ġrelato":3919,"mordimiento":3920,"Ġtempestad":3921,"ĠInfierno":3922,"aquellos":3923,"Ġaguas":3924,"Ġnecesario":3925,"colÃŃa":3926,"Ġamargo":3927,"primeros":3928,"Ġatractivos":3929,"ĠConfesiones":3930,"ĠÃºltima":3931,"Lejos":3932,"ernas":3933,"Ġcondenado":3934,"Ġamari":3935,"Ġvalor":3936,"Ġgato":3937,"ĠHay":3938,"titudes":3939,"Ġfemen":3940,"seguido":3941,"ĠviolÃŃn":3942,"Ġminutos":3943,"zcle":3944,"Ġbosque":3945,"Ġembriagado":3946,"fÃŃsica":3947,"Ġbeneficio":3948,"Ġcuriosidad":3949,"ĠPoeta":3950,"aparecido":3951,"Ġsegunda":3952,"Ġbestias":3953,"Ġcomprender":3954,"Ġayuda":3955,"Ġpropia":3956,"ĠCaÃŃn":3957,"ĠÃ©poca":3958,"ĠÃ©pocas":3959,"Ġpupilas":3960,"Ġposee":3961,"Ġembriaga":3962,"fÃŃcil":3963,"cualquier":3964,"Ġsolemne":3965,"ĠaficiÃ³n":3966,"Ġninguna":3967,"concili":3968,"ĠVenus":3969,"individuo":3970,"benevolencia":3971,"Ġutili":3972,"Ġclimas":3973,"Ġcomienzo":3974,"Ġdescanso":3975,"ĠvacÃŃo":3976,"ĠrincÃ³n":3977,"ĠvÃ©rtigo":3978,"Ġsublime":3979,"Ġinstrumento":3980,"Ġabismos":3981,"ĠpÃ¡jaros":3982,"invierno":3983,"Ġilus":3984,"Ġbotella":3985,"Ġesqueleto":3986,"numerables":3987,"Ġalmizcle":3988,"ÃŃntomas":3989,"brenatural":3990,"Acu":3991,"Ahora":3992,"Acaso":3993,"Com":3994,"Luego":3995,"MP":3996,"QU":3997,"Vol":3998,"at":3999,"amor":4000,"bras":4001,"blica":4002,"beras":4003,"cra":4004,"cÃŃ":4005,"cru":4006,"cales":4007,"cris":4008,"cuela":4009,"eos":4010,"ezas":4011,"efecto":4012,"emigo":4013,"fenÃ³menos":4014,"gal":4015,"grada":4016,"gano":4017,"gores":4018,"iera":4019,"itas":4020,"junto":4021,"llos":4022,"lÃ©n":4023,"males":4024,"muerte":4025,"mecer":4026,"nci":4027,"nuestros":4028,"nervi":4029,"otros":4030,"oÃŃdo":4031,"opiÃ³mano":4032,"rÃ¡s":4033,"rus":4034,"rero":4035,"sis":4036,"sado":4037,"sÃºbi":4038,"tÃŃn":4039,"tÃŃo":4040,"uci":4041,"uras":4042,"uradamente":4043,"vari":4044,"vuestro":4045,"vosotros":4046,"xiones":4047,"yendo":4048,"zca":4049,"Ġosa":4050,"Ġzar":4051,"Ġdado":4052,"Ġuso":4053,"ĠâĢľ":4054,"enza":4055,"debilidad":4056,"esen":4057,"esÃŃa":4058,"ester":4059,"esÃºs":4060,"espirituales":4061,"laciones":4062,"Ġdeci":4063,"Ġdecora":4064,"Ġdevora":4065,"ĠdetrÃ¡s":4066,"Ġsiendo":4067,"Ġaf":4068,"Ġala":4069,"Ġale":4070,"Ġase":4071,"Ġaba":4072,"Ġavan":4073,"Ġapaci":4074,"Ġapeti":4075,"Ġagrada":4076,"ermen":4077,"Ġcru":4078,"Ġpru":4079,"Ġpul":4080,"ĠplÃ¡":4081,"Ġmari":4082,"Ġmales":4083,"tamiento":4084,"ona":4085,"untos":4086,"redu":4087,"reza":4088,"inta":4089,"into":4090,"inar":4091,"inosa":4092,"intelectual":4093,"Ġlago":4094,"tema":4095,"angustia":4096,"cis":4097,"cielo":4098,"cidente":4099,"ciÃ©ndose":4100,"Ġlento":4101,"dadero":4102,"Ġellas":4103,"Ġengend":4104,"Ġencima":4105,"ĠhÃ©ro":4106,"aron":4107,"Ġesco":4108,"Ġestar":4109,"Ġvec":4110,"Ġvasta":4111,"Ġvinos":4112,"Ã³venes":4113,"timo":4114,"timiento":4115,"tigos":4116,"omÃŃa":4117,"dita":4118,"dientes":4119,"distin":4120,"aleg":4121,"rica":4122,"Ġsuce":4123,"Ġsuper":4124,"Ġsube":4125,"Ġsupli":4126,"Ġsucesi":4127,"Ġsuperior":4128,"tus":4129,"tumba":4130,"leo":4131,"lezas":4132,"Ġfri":4133,"ĠfrÃŃos":4134,"Ã©tico":4135,"absolu":4136,"Ġop":4137,"Ġora":4138,"ĠoÃŃa":4139,"Ġocho":4140,"Ġopera":4141,"Ġocur":4142,"Ġconce":4143,"Ġconsu":4144,"Ġconsecuencia":4145,"Ġseis":4146,"Ġbal":4147,"chaba":4148,"Ġeco":4149,"Ġejerci":4150,"Ġejemp":4151,"Ġalu":4152,"Ġaltar":4153,"mamento":4154,"madura":4155,"seÃ±":4156,"libre":4157,"limi":4158,"aran":4159,"Ġino":4160,"Ġincen":4161,"Ġinven":4162,"Ġinsul":4163,"Ġingl":4164,"ĠinÃºtil":4165,"erable":4166,"Ġgi":4167,"Ġguer":4168,"Ġgig":4169,"olor":4170,"viar":4171,"Ġmira":4172,"Ġredu":4173,"Ġrepe":4174,"Ġrecono":4175,"Ġrealidad":4176,"ĠreÃŃr":4177,"Ġrevesti":4178,"Ġregoci":4179,"Ġrepugn":4180,"ĠElec":4181,"Ġcuatro":4182,"Ġcuidado":4183,"rosas":4184,"pito":4185,"Ġdeso":4186,"Ġdesespera":4187,"ecen":4188,"bados":4189,"sion":4190,"Ġmezc":4191,"Ġdia":4192,"Ġdich":4193,"Ġdifi":4194,"zadas":4195,"modo":4196,"Ġmur":4197,"ĠmuriÃ³":4198,"mbÃ©":4199,"Ġtumbas":4200,"mido":4201,"mica":4202,"mico":4203,"migos":4204,"Ġvib":4205,"Ġvid":4206,"Ġviajero":4207,"mentado":4208,"Ġsiquiera":4209,"Ġsimple":4210,"Ġsop":4211,"Ġsober":4212,"Ġlodo":4213,"Ġloco":4214,"Ġlocos":4215,"ficar":4216,"ĠLi":4217,"tarra":4218,"pados":4219,"papel":4220,"bidas":4221,"ĠStreet":4222,"sufri":4223,"Ġcapri":4224,"ĠcafÃ©":4225,"gip":4226,"gios":4227,"Ġpob":4228,"solita":4229,"sala":4230,"samente":4231,"ĠhabÃ©is":4232,"ĠDel":4233,"Ġdomini":4234,"Ġperten":4235,"Ġperder":4236,"Ġperfecto":4237,"ĠAhora":4238,"tentes":4239,"Ġleyes":4240,"Ġanun":4241,"ĠanÃ¡lisis":4242,"ĠantaÃ±o":4243,"Ġarru":4244,"loro":4245,"Ġcierta":4246,"ĠCada":4247,"ĠMadona":4248,"jamÃ¡s":4249,"ebo":4250,"largo":4251,"Ġdue":4252,"Ġmatern":4253,"Ġmagia":4254,"Ġquince":4255,"exci":4256,"Ġtraba":4257,"Ġabo":4258,"Ġabri":4259,"Ġabrir":4260,"ĠTe":4261,"ĠTen":4262,"Ġverdu":4263,"ĠvergÃ¼":4264,"dena":4265,"agre":4266,"Ġjuego":4267,"Ġjard":4268,"ĠjÃ³venes":4269,"Ġhuir":4270,"ĠestaciÃ³n":4271,"permi":4272,"Esos":4273,"ristes":4274,"Ġpiados":4275,"Ġmanifiesto":4276,"marse":4277,"ĠEntre":4278,"legado":4279,"rÃŃnci":4280,"Ġinfor":4281,"ĠHi":4282,"Ġbeldad":4283,"Ġrayos":4284,"Ġradiante":4285,"Ġcastigo":4286,"creo":4287,"serÃŃa":4288,"Ġtengo":4289,"CuÃ¡ndo":4290,"CuÃ¡ntas":4291,"sensaciones":4292,"sensibilidad":4293,"Ġventan":4294,"facciÃ³n":4295,"favor":4296,"Ġcanto":4297,"ĠcanciÃ³n":4298,"Ġcantar":4299,"Ġcanciones":4300,"Ġcantidad":4301,"ĠcreÃŃa":4302,"Ġhijo":4303,"Ġlicor":4304,"Ġrodillas":4305,"Ġriberas":4306,"compla":4307,"Ġmonu":4308,"Ġprete":4309,"Ã³logo":4310,"mucho":4311,"ĠautÃ©n":4312,"Ġaurora":4313,"Ġapar":4314,"Contemp":4315,"gador":4316,"Ġmalgrado":4317,"tÃ¡is":4318,"tÃ¡culos":4319,"ĠOs":4320,"adqui":4321,"admira":4322,"darse":4323,"ternura":4324,"prepara":4325,"Ġsala":4326,"Ġlleva":4327,"Ġllevar":4328,"Ġfueron":4329,"Ġfuerzas":4330,"penas":4331,"Ġsangri":4332,"ĠFue":4333,"Ġhayan":4334,"Ġjau":4335,"Ġmorb":4336,"Ġmorir":4337,"Ġprome":4338,"Ġnuevos":4339,"Ġgoz":4340,"ĠpÃ¡ginas":4341,"Ġempero":4342,"Ġpersonalidad":4343,"aumenta":4344,"Ġfuri":4345,"Ġmedios":4346,"Ġmedida":4347,"humano":4348,"humana":4349,"Ġarroja":4350,"Ġpiedras":4351,"Ġmorada":4352,"Ġtranqui":4353,"eamente":4354,"Ġbrilla":4355,"Ġadqui":4356,"Ġcrueles":4357,"Ġelev":4358,"Ġnube":4359,"âĢ¦Â».":4360,"Ġquiz":4361,"Ġpesadas":4362,"ÃŃsima":4363,"Desde":4364,"Todas":4365,"Ġblanca":4366,"Ġbrazo":4367,"gularmente":4368,"Ġcampo":4369,"extraordin":4370,"Ġcose":4371,"Ġsufrimientos":4372,"ÃŃrgenes":4373,"ĠllegÃ³":4374,"gustias":4375,"Ġtrivial":4376,"vienta":4377,"hermana":4378,"ĠfantasÃŃas":4379,"Ġacumu":4380,"Hemos":4381,"Ġponiente":4382,"falle":4383,"deseo":4384,"Ġespada":4385,"natural":4386,"naturaleza":4387,"ĠpÃ¡lidas":4388,"Ġespectro":4389,"Ġantiguos":4390,"Arras":4391,"ĠÃºnica":4392,"Ġamplios":4393,"Ġmaravil":4394,"Ġarrastran":4395,"Ġhorizontes":4396,"cabal":4397,"Ġlengua":4398,"ĠmayorÃŃa":4399,"Ġpeligro":4400,"ARA":4401,"Ġ181":4402,"Ġdesconocido":4403,"Ġolvidar":4404,"ĠmelancÃ³li":4405,"ĠmelancÃ³lico":4406,"Ġonda":4407,"Ġsalir":4408,"animar":4409,"Ġfase":4410,"Ġconvertido":4411,"Ġpaisajes":4412,"Ġplanta":4413,"Ġhonor":4414,"Ġsegundo":4415,"Quiero":4416,"Ġaventuras":4417,"ĠmÃŃstica":4418,"ĠmÃŃstico":4419,"Ġquedaba":4420,"Ġnervioso":4421,"Ġindividu":4422,"Ġrecordar":4423,"Ġtropel":4424,"soledad":4425,"Ġpupila":4426,"CIÃĵN":4427,"Ġfarma":4428,"Ġmateria":4429,"familia":4430,"ĠÃ¡rboles":4431,"ĠatenciÃ³n":4432,"tienen":4433,"contemplaciÃ³n":4434,"ĠEspÃŃritu":4435,"generalmente":4436,"Ġvagamente":4437,"Ġbrillantes":4438,"Ġtriunf":4439,"Ġdesierto":4440,"Ġdiferentes":4441,"mÃºsica":4442,"ĠÃīl":4443,"Ġhistoria":4444,"Ġfrutos":4445,"maravillos":4446,"ĠChina":4447,"Ġacarici":4448,"ĠBelleza":4449,"Ġderecho":4450,"Ġvulgares":4451,"ĠocasiÃ³n":4452,"Ġbondad":4453,"Ġinmortal":4454,"Ġsiglo":4455,"Ġpatria":4456,"compaÃ±a":4457,"Ġmajestad":4458,"Ġisla":4459,"debili":4460,"ĠbÃ³veda":4461,"ĠLXXX":4462,"Ġartista":4463,"âĢĿ.":4464,"Ġvagabundo":4465,"Ã©cdo":4466,"mavera":4467,"Ġgolpe":4468,"Ġesperanzas":4469,"ĠmonÃ³tono":4470,"Ġcuello":4471,"inquie":4472,"Ġevapora":4473,"Ġnoctur":4474,"ĠinglÃ©s":4475,"ĠElectra":4476,"ĠvergÃ¼enza":4477,"rÃŃncipe":4478,"),":4479,".\"":4480,"Atra":4481,"Bus":4482,"CO":4483,"Cer":4484,"DE":4485,"DÃ³nde":4486,"Ese":4487,"Eres":4488,"IE":4489,"JE":4490,"Mar":4491,"Os":4492,"Pu":4493,"RI":4494,"So":4495,"Tanto":4496,"UM":4497,"am":4498,"ay":4499,"aven":4500,"agua":4501,"ademÃ¡s":4502,"bol":4503,"bur":4504,"cro":4505,"cero":4506,"cante":4507,"cÃ©s":4508,"caban":4509,"ccion":4510,"cÃ¡ndose":4511,"dÃ©":4512,"dante":4513,"drÃ¡":4514,"drÃ©":4515,"egu":4516,"etas":4517,"ejerci":4518,"fan":4519,"flor":4520,"feri":4521,"gis":4522,"ix":4523,"ies":4524,"ion":4525,"icos":4526,"icar":4527,"imagen":4528,"jero":4529,"nal":4530,"neg":4531,"nosotros":4532,"niz":4533,"pÃŃ":4534,"pÃ¡":4535,"pal":4536,"pol":4537,"pesa":4538,"punto":4539,"prom":4540,"reros":4541,"somb":4542,"sana":4543,"sario":4544,"tmo":4545,"trÃ¡":4546,"tÃ©r":4547,"vuestros":4548,"viendo":4549,"zante":4550,"Ġ,":4551,"ĠW":4552,"ĠÃŃdo":4553,"deces":4554,"derÃ¡":4555,"dejar":4556,"delante":4557,"esca":4558,"escu":4559,"lama":4560,"Ġdemonios":4561,"Ġaun":4562,"Ġacer":4563,"Ġalar":4564,"Ġaul":4565,"Ġatribu":4566,"Ġadiv":4567,"Ġambos":4568,"Ġacuerdo":4569,"Ġplen":4570,"Ġplu":4571,"Ġposi":4572,"Ġpese":4573,"Ġpuso":4574,"Ġpesado":4575,"Ġmante":4576,"Ġmuestra":4577,"Ġmelo":4578,"Ġmusi":4579,"tario":4580,"eles":4581,"ello":4582,"ore":4583,"ormes":4584,"reco":4585,"recer":4586,"recerÃŃa":4587,"representa":4588,"ing":4589,"inan":4590,"inca":4591,"incon":4592,"inero":4593,"inten":4594,"inidad":4595,"inex":4596,"Ġlabor":4597,"tec":4598,"temor":4599,"queza":4600,"cito":4601,"ciano":4602,"ciable":4603,"ciertamente":4604,"ÃŃdas":4605,"Ġlin":4606,"ĠlÃº":4607,"Ġenca":4608,"Ġencon":4609,"Ġencar":4610,"Ġenton":4611,"Ġenemigo":4612,"Ġenormes":4613,"arca":4614,"Ġunas":4615,"Ġvera":4616,"tima":4617,"tillo":4618,"tierra":4619,"dichado":4620,"Ġnombres":4621,"Ġnormal":4622,"alto":4623,"alma":4624,"ridos":4625,"ricas":4626,"rovis":4627,"tuoso":4628,"tuosos":4629,"lera":4630,"lega":4631,"Ġfab":4632,"Ġflan":4633,"Ġfosa":4634,"Ġflu":4635,"Ġolores":4636,"Ġconmo":4637,"Ġconsa":4638,"Ġcondiciones":4639,"Ġberme":4640,"trato":4641,"trados":4642,"Ġedi":4643,"Ġejecu":4644,"camino":4645,"lora":4646,"lote":4647,"cuado":4648,"cuenta":4649,"cuatro":4650,"Ġalte":4651,"Ġalguien":4652,"semejante":4653,"liber":4654,"Ġcompara":4655,"Ġini":4656,"Ġingra":4657,"Ġinvis":4658,"Ġgru":4659,"Ġgana":4660,"Ġgrotes":4661,"Ġhaya":4662,"vie":4663,"vivido":4664,"vilegio":4665,"Ġreal":4666,"Ġreba":4667,"Ġretor":4668,"Ġreali":4669,"Ġrefu":4670,"Ġrepresenta":4671,"ced":4672,"conf":4673,"cones":4674,"conse":4675,"convierte":4676,"ĠEN":4677,"ĠEse":4678,"ĠEsa":4679,"teros":4680,"terrÃ¡n":4681,"tancias":4682,"Ġcumpli":4683,"pidez":4684,"guas":4685,"Ġdesen":4686,"Ġdespli":4687,"codri":4688,"ĠtÃ©":4689,"Ġtren":4690,"sibles":4691,"simple":4692,"Ġdichoso":4693,"tesis":4694,"moha":4695,"Ġmuerto":4696,"mbu":4697,"mbra":4698,"mias":4699,"mirada":4700,"descen":4701,"descan":4702,"Ġvivo":4703,"Ġvivido":4704,"Ġsuspiros":4705,"Ġsuspiro":4706,"menes":4707,"Ġsigu":4708,"Ġsimpa":4709,"ĠsimbÃ³":4710,"Ġsola":4711,"Ġloca":4712,"fiero":4713,"ficas":4714,"taron":4715,"ĠPas":4716,"Ã¡ntos":4717,"Ġmismas":4718,"biÃ³":4719,"biles":4720,"mosa":4721,"Ġsingulares":4722,"Ġsinies":4723,"sual":4724,"super":4725,"ĠcaÃŃdo":4726,"Ġexcu":4727,"Ġexig":4728,"Ġexhi":4729,"Ġexplica":4730,"sobrenatural":4731,"vaga":4732,"vaje":4733,"Ġdor":4734,"Ġdotado":4735,"Ġespanto":4736,"cereb":4737,"osotras":4738,"Ġley":4739,"Ġleer":4740,"Ġleyen":4741,"Ġansi":4742,"ĠanÃ¡lo":4743,"Ġarriba":4744,"Ġpropor":4745,"comb":4746,"vedi":4747,"cesos":4748,"cesar":4749,"lord":4750,"Ġcierra":4751,"nados":4752,"verse":4753,"vergon":4754,"lento":4755,"poder":4756,"podido":4757,"podÃŃan":4758,"podrÃŃa":4759,"Ġtedio":4760,"Ġtemblor":4761,"ĠveÃŃa":4762,"Ġveladas":4763,"garse":4764,"ultra":4765,"ulce":4766,"Ã©ndo":4767,"Ġabsor":4768,"Ġverdes":4769,"Ġhechos":4770,"agan":4771,"Ġhumanas":4772,"Ġhumilla":4773,"Ġimpu":4774,"Ġimper":4775,"perfec":4776,"Ġasombro":4777,"Ġmani":4778,"Ġmanto":4779,"guiÃ³":4780,"Ã©spe":4781,"Ġrespe":4782,"Ġresultado":4783,"ĠVer":4784,"ĠVol":4785,"esperan":4786,"Ġraro":4787,"Ġpaso":4788,"Ġpasiones":4789,"Ġfacultad":4790,"creer":4791,"ronÃŃa":4792,"ronce":4793,"Ġmenudo":4794,"Ġcorte":4795,"Ġcortes":4796,"Ġcorriente":4797,"haber":4798,"habita":4799,"circunstan":4800,"Cuya":4801,"fuente":4802,"fortuna":4803,"sensa":4804,"sensaciÃ³n":4805,"Ġmode":4806,"fati":4807,"Ġcantan":4808,"Ġcarre":4809,"presente":4810,"Ġpedir":4811,"irri":4812,"Ġoscura":4813,"Ġhielo":4814,"ĠparecÃŃan":4815,"Ġlibera":4816,"Ġroe":4817,"Ġrode":4818,"Ġvago":4819,"Ġprofundis":4820,"ferentes":4821,"clamÃ³":4822,"mista":4823,"Ġhermanos":4824,"telle":4825,"mucha":4826,"Ġtapi":4827,"Ġaumenta":4828,"Ġapren":4829,"Ġfinalmente":4830,"Ġpuesto":4831,"Ġfijos":4832,"Ġfiebre":4833,"ĠfilÃ³sofo":4834,"bergue":4835,"pongo":4836,"Ġcobi":4837,"Ġcotidi":4838,"Ġllenas":4839,"ĠvisiÃ³n":4840,"cuerda":4841,"Ġclara":4842,"Ġclaus":4843,"Ġdistra":4844,"Ġdiscre":4845,"bea":4846,"Ġaquello":4847,"Ġcuerpos":4848,"Ġjura":4849,"visto":4850,"ĠconocÃŃa":4851,"Ġnaturalmente":4852,"parte":4853,"parente":4854,"ĠĠĠĠĠĠĠĠĠĠĠĠĊ":4855,"Ġpresa":4856,"Ġmori":4857,"Ġprimeros":4858,"Ġvoy":4859,"Ġtortura":4860,"Ġtorbel":4861,"Ġrumor":4862,"Ġterror":4863,"Ġgoce":4864,"Ġcerebros":4865,"Ãģngel":4866,"Ġempu":4867,"lÃ¡grimas":4868,"Ġsombras":4869,"ciona":4870,"Ġfuturo":4871,"Ġmediante":4872,"Ġarroyo":4873,"Ġpiedad":4874,"Ġmorales":4875,"Ġtranquila":4876,"Ġ(Â¡":4877,"mÃ³vil":4878,"Ġgriego":4879,"belleza":4880,"mejantes":4881,"Ġadmi":4882,"Ġadver":4883,"dirse":4884,"Ġcontempla":4885,"Ġeleva":4886,"ĠJesÃºs":4887,"Ġpesadilla":4888,"cepti":4889,"ERS":4890,"Ġirresistible":4891,"Todos":4892,"niÃ±os":4893,"Ġhalla":4894,"Ġcosta":4895,"Ġcostumbre":4896,"lona":4897,"pose":4898,"Ġquieren":4899,"Ġquieres":4900,"Ġgloriosa":4901,"Ġcentro":4902,"ÃŃrculo":4903,"colores":4904,"xima":4905,"Ġamargos":4906,"ĠburlÃ³n":4907,"nuevamente":4908,"viene":4909,"piraciÃ³n":4910,"sabe":4911,"cientas":4912,"cterÃŃs":4913,"pansiÃ³n":4914,"ĠmomentÃ¡n":4915,"Ġenfermedad":4916,"Ã¡lsa":4917,"Ġestudio":4918,"teligente":4919,"Ġencantadora":4920,"Ġpone":4921,"Ġhoy":4922,"Ġofren":4923,"librio":4924,"losofÃŃa":4925,"personalidad":4926,"celente":4927,"Ġamable":4928,"ciosamente":4929,"Ġescribir":4930,"Ġconsiguiente":4931,"naturalmente":4932,"ĠharÃ¡":4933,"ĠharÃ©":4934,"Ġfrase":4935,"Arro":4936,"plicado":4937,"sancio":4938,"salud":4939,"ĠÃºnico":4940,"ĠÃºnicamente":4941,"Ġamplia":4942,"consiguiente":4943,"Ġagilidad":4944,"Ġculto":4945,"Ġculpable":4946,"ĠSuspiria":4947,"Ġimportante":4948,"Ġhierba":4949,"Ġpeligroso":4950,"Ġintensidad":4951,"pensamientos":4952,"bastante":4953,"Ġahogar":4954,"ĠseguÃŃa":4955,"Ġolvidado":4956,"Ġcaricias":4957,"inspira":4958,"Ġencuentro":4959,"Ġfelices":4960,"Ġconsiste":4961,"Ġdesnudo":4962,"Ġpoderoso":4963,"ĠlÃ¡nguida":4964,"tÃºa":4965,"palabra":4966,"Ġprolongado":4967,"Ġhechicera":4968,"Ġinquietud":4969,"Antes":4970,"Podemos":4971,"tumbres":4972,"quisita":4973,"moral":4974,"ĠpaÃŃses":4975,"completamente":4976,"ĠmontaÃ±a":4977,"Ġempleo":4978,"Ġborracho":4979,"Ġdefinir":4980,"Ġllora":4981,"alucinaciÃ³n":4982,"Ġindolencia":4983,"ignora":4984,"ĠVINO":4985,"objeto":4986,"DespuÃ©s":4987,"fÃ¡cil":4988,"fÃ¡cilmente":4989,"greso":4990,"ĠÃŃndole":4991,"Ġconsuela":4992,"Ġzapa":4993,"ĠagonÃŃa":4994,"Ġagoniz":4995,"inmenso":4996,"Ġtesoro":4997,"Ġtesoros":4998,"suficiente":4999}